{
  "version": "1.0",
  "truncation": null,
  "padding": null,
  "added_tokens": [
    {
      "id": 0,
      "content": "[UNK]",
      "single_word": false,
      "lstrip": false,
      "rstrip": false,
      "normalized": false,
      "special": true
    },
    {
      "id": 1,
      "content": "[CLS]",
      "single_word": false,
      "lstrip": false,
      "rstrip": false,
      "normalized": false,
      "special": true
    },
    {
      "id": 2,
      "content": "[SEP]",
      "single_word": false,
      "lstrip": false,
      "rstrip": false,
      "normalized": false,
      "special": true
    },
    {
      "id": 3,
      "content": "[PAD]",
      "single_word": false,
      "lstrip": false,
      "rstrip": false,
      "normalized": false,
      "special": true
    },
    {
      "id": 4,
      "content": "[MASK]",
      "single_word": false,
      "lstrip": false,
      "rstrip": false,
      "normalized": false,
      "special": true
    }
  ],
  "normalizer": null,
  "pre_tokenizer": {
    "type": "Whitespace"
  },
  "post_processor": null,
  "decoder": null,
  "model": {
    "type": "WordPiece",
    "unk_token": "[UNK]",
    "continuing_subword_prefix": "##",
    "max_input_chars_per_word": 100,
    "vocab": {
      "[UNK]": 0,
      "[CLS]": 1,
      "[SEP]": 2,
      "[PAD]": 3,
      "[MASK]": 4,
      "0": 5,
      "1": 6,
      "2": 7,
      "3": 8,
      "4": 9,
      "5": 10,
      "6": 11,
      "7": 12,
      "8": 13,
      "9": 14,
      "A": 15,
      "B": 16,
      "C": 17,
      "D": 18,
      "E": 19,
      "F": 20,
      "G": 21,
      "H": 22,
      "I": 23,
      "J": 24,
      "K": 25,
      "L": 26,
      "M": 27,
      "N": 28,
      "O": 29,
      "P": 30,
      "Q": 31,
      "R": 32,
      "S": 33,
      "T": 34,
      "U": 35,
      "V": 36,
      "W": 37,
      "X": 38,
      "Y": 39,
      "Z": 40,
      "_": 41,
      "a": 42,
      "b": 43,
      "c": 44,
      "d": 45,
      "e": 46,
      "f": 47,
      "g": 48,
      "h": 49,
      "i": 50,
      "j": 51,
      "k": 52,
      "l": 53,
      "m": 54,
      "n": 55,
      "o": 56,
      "p": 57,
      "q": 58,
      "r": 59,
      "s": 60,
      "t": 61,
      "u": 62,
      "v": 63,
      "w": 64,
      "x": 65,
      "y": 66,
      "z": 67,
      "##e": 68,
      "##t": 69,
      "##_": 70,
      "##c": 71,
      "##b": 72,
      "##f": 73,
      "##r": 74,
      "##o": 75,
      "##m": 76,
      "##s": 77,
      "##h": 78,
      "##u": 79,
      "##n": 80,
      "##k": 81,
      "##a": 82,
      "##p": 83,
      "##g": 84,
      "##l": 85,
      "##I": 86,
      "##C": 87,
      "##i": 88,
      "##H": 89,
      "##d": 90,
      "##w": 91,
      "##2": 92,
      "##5": 93,
      "##6": 94,
      "##3": 95,
      "##9": 96,
      "##x": 97,
      "##v": 98,
      "##y": 99,
      "##q": 100,
      "##8": 101,
      "##4": 102,
      "##1": 103,
      "##z": 104,
      "##X": 105,
      "##M": 106,
      "##U": 107,
      "##O": 108,
      "##N": 109,
      "##F": 110,
      "##G": 111,
      "##V": 112,
      "##T": 113,
      "##R": 114,
      "##0": 115,
      "##L": 116,
      "##B": 117,
      "##E": 118,
      "##A": 119,
      "##j": 120,
      "##S": 121,
      "##D": 122,
      "##P": 123,
      "##7": 124,
      "##W": 125,
      "##Q": 126,
      "##Z": 127,
      "##Y": 128,
      "##K": 129,
      "##J": 130,
      "##t_": 131,
      "##re": 132,
      "##in": 133,
      "##e_": 134,
      "##_s": 135,
      "##oc": 136,
      "##de": 137,
      "##te": 138,
      "##loc": 139,
      "##ch": 140,
      "##_b": 141,
      "##d_": 142,
      "##at": 143,
      "##et_": 144,
      "##_p": 145,
      "##lock": 146,
      "##_re": 147,
      "##ra": 148,
      "##un": 149,
      "##er": 150,
      "##_c": 151,
      "##ic": 152,
      "##_m": 153,
      "##it": 154,
      "##le": 155,
      "##_d": 156,
      "##al": 157,
      "##or": 158,
      "##en": 159,
      "##et": 160,
      "##ad": 161,
      "##on": 162,
      "##in_": 163,
      "##s_": 164,
      "##dev": 165,
      "##ec": 166,
      "##il": 167,
      "##_i": 168,
      "##ri": 169,
      "##_g": 170,
      "##em": 171,
      "##ma": 172,
      "##_bu": 173,
      "##_w": 174,
      "##ti": 175,
      "##es": 176,
      "##_f": 177,
      "##_in": 178,
      "##to": 179,
      "##is": 180,
      "##tr": 181,
      "##_buil": 182,
      "##si": 183,
      "__buil": 184,
      "__built": 185,
      "##an": 186,
      "##_n": 187,
      "##ar": 188,
      "##_st": 189,
      "##ev": 190,
      "##ab": 191,
      "##_get_": 192,
      "##rite": 193,
      "##ad_": 194,
      "##unlock": 195,
      "##ob": 196,
      "##cu": 197,
      "sp": 198,
      "##up": 199,
      "##rq": 200,
      "##ran": 201,
      "##as": 202,
      "##alloc": 203,
      "##ze": 204,
      "##_r": 205,
      "__builtin_": 206,
      "##_mem": 207,
      "##cp": 208,
      "dev": 209,
      "##ing": 210,
      "ar": 211,
      "##_h": 212,
      "##obj": 213,
      "arch": 214,
      "__": 215,
      "##ect_": 216,
      "##x_": 217,
      "##_stat": 218,
      "##om": 219,
      "##ap": 220,
      "##size": 221,
      "##us": 222,
      "##int": 223,
      "##object_": 224,
      "##_read_": 225,
      "##dat": 226,
      "##ter": 227,
      "##fs": 228,
      "##it_": 229,
      "##pu": 230,
      "##rint": 231,
      "##la": 232,
      "##_set_": 233,
      "##object_size": 234,
      "__builtin_object_size": 235,
      "##_ch": 236,
      "##am": 237,
      "##RR": 238,
      "##_t": 239,
      "##32": 240,
      "##able": 241,
      "##S_": 242,
      "##ac": 243,
      "##ic_b": 244,
      "##ranch": 245,
      "##ic_branch": 246,
      "##_static_branch": 247,
      "arch_static_branch": 248,
      "##el": 249,
      "##dr": 250,
      "##ute": 251,
      "##qu": 252,
      "##io": 253,
      "##ERR": 254,
      "re": 255,
      "##map": 256,
      "##bu": 257,
      "##_irq": 258,
      "##rac": 259,
      "##_en": 260,
      "spin_": 261,
      "##_dev": 262,
      "##ci": 263,
      "##yn": 264,
      "##ex": 265,
      "##le_": 266,
      "##_read": 267,
      "##der": 268,
      "##_write": 269,
      "##utex_": 270,
      "##reg": 271,
      "mutex_": 272,
      "IS_": 273,
      "##op": 274,
      "##fy": 275,
      "##rintk": 276,
      "##fi": 277,
      "##fre": 278,
      "##data": 279,
      "IS_ERR": 280,
      "##res": 281,
      "##lo": 282,
      "##est_": 283,
      "##st": 284,
      "##bit": 285,
      "##eck": 286,
      "##cpy": 287,
      "rcu": 288,
      "##tify": 289,
      "##_de": 290,
      "##ed": 291,
      "##ou": 292,
      "##ly": 293,
      "rcu_read_": 294,
      "##tim": 295,
      "in": 296,
      "##_reg": 297,
      "devm": 298,
      "##err": 299,
      "##fs_": 300,
      "##_pr": 301,
      "##ortify": 302,
      "##co": 303,
      "_dev": 304,
      "##kb": 305,
      "##ed_": 306,
      "##_memcpy": 307,
      "##ag": 308,
      "##ol": 309,
      "##rit": 310,
      "##_k": 311,
      "##bug": 312,
      "##printk": 313,
      "_printk": 314,
      "##under": 315,
      "##race_": 316,
      "__under": 317,
      "##lying": 318,
      "__underlying": 319,
      "##get_": 320,
      "fortify": 321,
      "##set_": 322,
      "##_v": 323,
      "##rite_": 324,
      "##sw": 325,
      "##_err": 326,
      "##_init": 327,
      "__d": 328,
      "##ve": 329,
      "##free": 330,
      "##ow": 331,
      "##bg": 332,
      "##_pu": 333,
      "##lin": 334,
      "##_sp": 335,
      "spin_unlock": 336,
      "##lk": 337,
      "##ock": 338,
      "##ode": 339,
      "##ate": 340,
      "##of": 341,
      "##od": 342,
      "##_dbg": 343,
      "##ty": 344,
      "##ynam": 345,
      "##_check": 346,
      "rt": 347,
      "##raw": 348,
      "##_ad": 349,
      "##th": 350,
      "##ep": 351,
      "##set": 352,
      "##riv": 353,
      "##cm": 354,
      "##ice_": 355,
      "net": 356,
      "##_to": 357,
      "##lat": 358,
      "##ynamic": 359,
      "##_con": 360,
      "__dynamic": 361,
      "sn": 362,
      "##zalloc": 363,
      "get_": 364,
      "##rm": 365,
      "rcu_read_lock": 366,
      "##eu": 367,
      "##ted": 368,
      "##ister": 369,
      "##hy": 370,
      "##fo": 371,
      "__builtin": 372,
      "trace_": 373,
      "##for": 374,
      "##dep": 375,
      "##omp": 376,
      "kfree": 377,
      "##swap": 378,
      "##um": 379,
      "##id": 380,
      "##_enable": 381,
      "##_bswap": 382,
      "__builtin_bswap": 383,
      "##queu": 384,
      "##drv": 385,
      "##emp": 386,
      "##00": 387,
      "##able_": 388,
      "##_write_": 389,
      "reg": 390,
      "pci": 391,
      "##_init_": 392,
      "##_dis": 393,
      "##e_p": 394,
      "##ested": 395,
      "##drvdata": 396,
      "##con": 397,
      "test_": 398,
      "##ig": 399,
      "##T_": 400,
      "_dev_err": 401,
      "##st_": 402,
      "##ren": 403,
      "mutex_unlock": 404,
      "##ist_": 405,
      "skb": 406,
      "mutex_lock": 407,
      "##ot": 408,
      "##if": 409,
      "##ip": 410,
      "##eld": 411,
      "##_nested": 412,
      "##ent_": 413,
      "##ey": 414,
      "##16": 415,
      "mutex_lock_nested": 416,
      "##_spin_": 417,
      "##ode_": 418,
      "##_sch": 419,
      "##_set": 420,
      "##time_": 421,
      "##_res": 422,
      "##_alloc": 423,
      "##11": 424,
      "##tion": 425,
      "##raw_spin_": 426,
      "##ate_": 427,
      "##_priv": 428,
      "##are": 429,
      "##date_": 430,
      "##_lock": 431,
      "##rc": 432,
      "##_irqs": 433,
      "nla": 434,
      "##_rcu": 435,
      "##tel": 436,
      "##ach": 437,
      "##tore": 438,
      "##2c": 439,
      "##_pre": 440,
      "##ree_": 441,
      "##d_s": 442,
      "##_is_": 443,
      "##sc": 444,
      "##raw_spin_lock": 445,
      "write": 446,
      "##ram": 447,
      "de": 448,
      "##se": 449,
      "##_sched_": 450,
      "us": 451,
      "##tom": 452,
      "lock": 453,
      "##sp": 454,
      "spin_lock": 455,
      "spin": 456,
      "##ir": 457,
      "##and": 458,
      "##lock_check": 459,
      "spinlock_check": 460,
      "##wor": 461,
      "##irq": 462,
      "atom": 463,
      "##_chk": 464,
      "##TR": 465,
      "debug": 466,
      "##coun": 467,
      "##ro": 468,
      "##form": 469,
      "##dep_rcu": 470,
      "of": 471,
      "##lx": 472,
      "##_memcpy_chk": 473,
      "fortify_memcpy_chk": 474,
      "##fer": 475,
      "##rent": 476,
      "##ort_": 477,
      "test_bit": 478,
      "netdev": 479,
      "##and_": 480,
      "##ore": 481,
      "__underlying_memcpy": 482,
      "list_": 483,
      "##chk": 484,
      "atomic": 485,
      "##xx": 486,
      "##ee": 487,
      "##_get": 488,
      "mlx": 489,
      "##ata": 490,
      "##lear": 491,
      "##c_": 492,
      "##ave": 493,
      "__underlying_mem": 494,
      "cpu": 495,
      "##ect": 496,
      "__builtin_bswap32": 497,
      "##latform": 498,
      "##yp": 499,
      "##ul": 500,
      "##fig": 501,
      "##ent": 502,
      "##_memset_": 503,
      "fortify_memset_": 504,
      "__underlying_memset": 505,
      "fortify_memset_chk": 506,
      "##md": 507,
      "##_device_": 508,
      "##ice": 509,
      "spin_unlock_irq": 510,
      "##_comp": 511,
      "##link": 512,
      "##_dev_dbg": 513,
      "##sg": 514,
      "regmap": 515,
      "##15": 516,
      "##rintf": 517,
      "##out": 518,
      "##update_": 519,
      "##_info": 520,
      "##ack": 521,
      "##_on": 522,
      "##_key": 523,
      "kzalloc": 524,
      "read": 525,
      "##80": 526,
      "##race": 527,
      "usb": 528,
      "##ourc": 529,
      "##_put_": 530,
      "##_enabled": 531,
      "##ame": 532,
      "btr": 533,
      "__dynamic_dev_dbg": 534,
      "dma": 535,
      "##str": 536,
      "drm": 537,
      "##ve_": 538,
      "##im": 539,
      "__m": 540,
      "##vm": 541,
      "##_put": 542,
      "##_run": 543,
      "##ync": 544,
      "##quest_": 545,
      "##pf": 546,
      "##lag": 547,
      "##age": 548,
      "##_debug": 549,
      "##_wa": 550,
      "st": 551,
      "##rom": 552,
      "##_data": 553,
      "##count_": 554,
      "##_bh": 555,
      "set_": 556,
      "##restore": 557,
      "str": 558,
      "##end": 559,
      "devm_k": 560,
      "##_un": 561,
      "writel": 562,
      "##ffer": 563,
      "ip": 564,
      "intel": 565,
      "_raw_spin_lock": 566,
      "##leas": 567,
      "##igh": 568,
      "##_bit": 569,
      "##_phy": 570,
      "##_irqsave": 571,
      "##line": 572,
      "##get": 573,
      "pm": 574,
      "##_u": 575,
      "##register": 576,
      "##_cre": 577,
      "##lay": 578,
      "_raw_spin_lock_irqsave": 579,
      "##ind_": 580,
      "##ion": 581,
      "##cur": 582,
      "##leep": 583,
      "##tx": 584,
      "##_of": 585,
      "##init": 586,
      "##64": 587,
      "##he": 588,
      "##915": 589,
      "##ok": 590,
      "##ub": 591,
      "##empt_": 592,
      "##not": 593,
      "spin_unlock_irqrestore": 594,
      "##add": 595,
      "##IS": 596,
      "rcu_read_unlock": 597,
      "##val": 598,
      "##_l": 599,
      "snd_": 600,
      "##e_s": 601,
      "##_ex": 602,
      "##len": 603,
      "##try": 604,
      "##_get_drvdata": 605,
      "##work": 606,
      "rcu_read_lock_sched_": 607,
      "##notrace": 608,
      "##_is": 609,
      "##802": 610,
      "platform": 611,
      "to": 612,
      "sc": 613,
      "##put": 614,
      "##held": 615,
      "##put_": 616,
      "##ask": 617,
      "##ib": 618,
      "debug_lock": 619,
      "##ash": 620,
      "##_a": 621,
      "##_register": 622,
      "##dep_rcu_enabled": 623,
      "debug_lockdep_rcu_enabled": 624,
      "##_hw": 625,
      "##opy": 626,
      "##dma": 627,
      "ath": 628,
      "##id_": 629,
      "##_online": 630,
      "##current": 631,
      "##_us": 632,
      "##_net": 633,
      "##queue_": 634,
      "cpu_online": 635,
      "##all": 636,
      "##_lo": 637,
      "##event_": 638,
      "##mo": 639,
      "##_disable": 640,
      "##10": 641,
      "get_current": 642,
      "##atch": 643,
      "##fset": 644,
      "rtl": 645,
      "##pare": 646,
      "##ce_": 647,
      "readl": 648,
      "devm_kzalloc": 649,
      "##80211": 650,
      "##cpi": 651,
      "##mp": 652,
      "IN": 653,
      "##sk": 654,
      "##usp": 655,
      "##end_": 656,
      "##_pr_debug": 657,
      "__dynamic_pr_debug": 658,
      "##AD": 659,
      "##fs2": 660,
      "##arn": 661,
      "snd_s": 662,
      "netdev_priv": 663,
      "##gpu": 664,
      "##oper": 665,
      "##fa": 666,
      "##HE": 667,
      "##IT_": 668,
      "##oun": 669,
      "i2c": 670,
      "amd": 671,
      "INIT_": 672,
      "##ge": 673,
      "##_addr": 674,
      "##attr": 675,
      "##LIS": 676,
      "##LIST_": 677,
      "##FS_": 678,
      "##HEAD": 679,
      "INIT_LIST_": 680,
      "INIT_LIST_HEAD": 681,
      "##ver": 682,
      "##eg": 683,
      "##eq": 684,
      "##_free_": 685,
      "##tl": 686,
      "##_runtime_": 687,
      "##43": 688,
      "##TR_": 689,
      "##read": 690,
      "PTR_": 691,
      "##_request_": 692,
      "PTR_ERR": 693,
      "##ort": 694,
      "##ess": 695,
      "##empty": 696,
      "##empt_count_": 697,
      "##ight_": 698,
      "##l2": 699,
      "amdgpu": 700,
      "km": 701,
      "##_mm": 702,
      "nf": 703,
      "##art_": 704,
      "##exp": 705,
      "i915": 706,
      "##trl": 707,
      "##top": 708,
      "##_id": 709,
      "##cl": 710,
      "##_by": 711,
      "##ew": 712,
      "##lan": 713,
      "##low": 714,
      "##device": 715,
      "##ryp": 716,
      "##_update_": 717,
      "##ur": 718,
      "##add_": 719,
      "##ge_": 720,
      "##_warn": 721,
      "snd_soc": 722,
      "##_clk": 723,
      "##operty": 724,
      "pm_runtime_": 725,
      "clk": 726,
      "##age_": 727,
      "##pio": 728,
      "##queue": 729,
      "##mi": 730,
      "##sleep": 731,
      "##u32": 732,
      "b43": 733,
      "##bits": 734,
      "##oy": 735,
      "##own": 736,
      "ex": 737,
      "##ath": 738,
      "##as_": 739,
      "##4l2": 740,
      "##cmp": 741,
      "##write": 742,
      "##dis": 743,
      "netif": 744,
      "##_name": 745,
      "##_sh": 746,
      "##wa": 747,
      "ktime_": 748,
      "acpi": 749,
      "##ched": 750,
      "##trol": 751,
      "##mb": 752,
      "btrfs_": 753,
      "__pre": 754,
      "__preempt_count_": 755,
      "##pr": 756,
      "##nel": 757,
      "##_map": 758,
      "##ail": 759,
      "##timer": 760,
      "v4l2": 761,
      "##_held": 762,
      "##_si": 763,
      "##atic": 764,
      "##se_": 765,
      "mt": 766,
      "##_fre": 767,
      "##aram": 768,
      "##ten": 769,
      "##ser": 770,
      "##_printk": 771,
      "##_releas": 772,
      "##mc": 773,
      "##okup": 774,
      "##expect": 775,
      "##inter": 776,
      "__builtin_expect": 777,
      "##lear_bit": 778,
      "##dp": 779,
      "init_": 780,
      "mlx5": 781,
      "static": 782,
      "##ource": 783,
      "##t4": 784,
      "static_key": 785,
      "##_fal": 786,
      "##_add_": 787,
      "##printf": 788,
      "##flag": 789,
      "##ower": 790,
      "##config": 791,
      "##_susp": 792,
      "nla_put_": 793,
      "##og": 794,
      "##_from": 795,
      "static_key_fal": 796,
      "static_key_false": 797,
      "##art": 798,
      "##_str": 799,
      "is_": 800,
      "##msg": 801,
      "##omm": 802,
      "##x2": 803,
      "##eee": 804,
      "oc": 805,
      "##_j": 806,
      "##wl": 807,
      "##e_c": 808,
      "##mask": 809,
      "##_set_drvdata": 810,
      "trace_event_": 811,
      "##tp": 812,
      "##ush": 813,
      "##ule_": 814,
      "##_disable_": 815,
      "##_po": 816,
      "xfs_": 817,
      "##s_to": 818,
      "##_pci": 819,
      "##ure": 820,
      "##_get_p": 821,
      "##_tx": 822,
      "##_cl": 823,
      "##nl": 824,
      "rtw": 825,
      "##_compon": 826,
      "##eee80211": 827,
      "##_config": 828,
      "##test": 829,
      "al": 830,
      "##_ac": 831,
      "list_empty": 832,
      "##ze_": 833,
      "##_create_": 834,
      "##roup": 835,
      "##_wor": 836,
      "##_state": 837,
      "##stroy": 838,
      "##est": 839,
      "##her": 840,
      "##_enable_": 841,
      "##_par": 842,
      "##ind": 843,
      "##dio": 844,
      "##rans": 845,
      "##_setup": 846,
      "##te_": 847,
      "##_fi": 848,
      "##_sub": 849,
      "##comp": 850,
      "iore": 851,
      "##is_": 852,
      "##_cm": 853,
      "##owrite": 854,
      "##ulat": 855,
      "##utex": 856,
      "##net": 857,
      "##_block": 858,
      "##delay": 859,
      "##t_p": 860,
      "##write_": 861,
      "ad": 862,
      "##ill": 863,
      "##_proc": 864,
      "##anc": 865,
      "##check": 866,
      "##_sync": 867,
      "##local": 868,
      "_dev_info": 869,
      "##_ctrl": 870,
      "##d_p": 871,
      "##tc": 872,
      "##ys": 873,
      "##rypto": 874,
      "##info": 875,
      "##ss": 876,
      "dev_get_drvdata": 877,
      "##time": 878,
      "##ts": 879,
      "##_user": 880,
      "device_": 881,
      "##gb": 882,
      "##_free": 883,
      "##buffer": 884,
      "##_val": 885,
      "##rx": 886,
      "##100": 887,
      "##ulator": 888,
      "ieee80211": 889,
      "kmalloc": 890,
      "##_ra": 891,
      "##_trace_": 892,
      "##_P": 893,
      "##ump": 894,
      "##_hand": 895,
      "##_find_": 896,
      "##au": 897,
      "iowrite": 898,
      "xfs": 899,
      "##_ar": 900,
      "##eph": 901,
      "##FS_I": 902,
      "##_port_": 903,
      "__builtin_bswap16": 904,
      "atomic_read": 905,
      "##pc": 906,
      "##by": 907,
      "##_S": 908,
      "##_le": 909,
      "##_chan": 910,
      "##ke_": 911,
      "##del": 912,
      "##_add": 913,
      "bn": 914,
      "##ious": 915,
      "##init_": 916,
      "##icious": 917,
      "lockdep_rcu": 918,
      "##_suspicious": 919,
      "lockdep_rcu_suspicious": 920,
      "##_skb": 921,
      "lockdep": 922,
      "##int_": 923,
      "si": 924,
      "##ler": 925,
      "is": 926,
      "##sec": 927,
      "##_stop": 928,
      "##_remo": 929,
      "rcu_read_lock_sched_held": 930,
      "##one": 931,
      "##_prepare": 932,
      "##event": 933,
      "##_he": 934,
      "ch": 935,
      "##ll": 936,
      "##rec": 937,
      "##_sched_notrace": 938,
      "rcu_read_unlock_sched_notrace": 939,
      "rcu_read_lock_sched_notrace": 940,
      "##ader": 941,
      "ceph": 942,
      "##ile_": 943,
      "##state": 944,
      "##hand": 945,
      "mem": 946,
      "##12": 947,
      "##ade": 948,
      "ERR": 949,
      "per": 950,
      "##ext_": 951,
      "##_op": 952,
      "##_queue_": 953,
      "ext4": 954,
      "##_buf": 955,
      "ocfs2": 956,
      "##_buffer": 957,
      "##10k": 958,
      "##addr": 959,
      "##imit": 960,
      "##port_": 961,
      "##_component_": 962,
      "##_for": 963,
      "platform_get_": 964,
      "##chan": 965,
      "##mem": 966,
      "set_bit": 967,
      "##_irqs_disable": 968,
      "arch_irqs_disable": 969,
      "##_at": 970,
      "##_dma": 971,
      "##ache_": 972,
      "##hci": 973,
      "__init_": 974,
      "##_send_": 975,
      "##_bo": 976,
      "##utex_init": 977,
      "##_offset": 978,
      "crypto": 979,
      "##hw": 980,
      "##no": 981,
      "__mutex_init": 982,
      "##_cpu": 983,
      "snd_soc_component_": 984,
      "ioread": 985,
      "##_local": 986,
      "##_writel": 987,
      "##range": 988,
      "##flags": 989,
      "##_e": 990,
      "##_no": 991,
      "lpf": 992,
      "__raw_spin_lock": 993,
      "__raw_spin_lock_init": 994,
      "##_write_reg": 995,
      "##ard": 996,
      "##ray": 997,
      "##_inode": 998,
      "sock": 999,
      "__might_": 1000,
      "##_conn": 1001,
      "##nal": 1002,
      "##_property": 1003,
      "btrfs": 1004,
      "alloc": 1005,
      "##ost_": 1006,
      "##c_and_": 1007,
      "##_PTR": 1008,
      "##word": 1009,
      "seq": 1010,
      "##_rx": 1011,
      "##resched": 1012,
      "ERR_PTR": 1013,
      "##_new": 1014,
      "##bi": 1015,
      "##rig": 1016,
      "##_up": 1017,
      "##_is_held": 1018,
      "##ity": 1019,
      "##_sk": 1020,
      "##_wait_": 1021,
      "##c_and_test": 1022,
      "##_mode": 1023,
      "##_dir": 1024,
      "##letion": 1025,
      "br": 1026,
      "input_": 1027,
      "##ref": 1028,
      "##_hdr": 1029,
      "##_iore": 1030,
      "##rup": 1031,
      "##_size": 1032,
      "##_sc": 1033,
      "##fg": 1034,
      "regmap_write": 1035,
      "##offset": 1036,
      "##hash": 1037,
      "##log": 1038,
      "##_work": 1039,
      "##ger": 1040,
      "##_fw": 1041,
      "scsi": 1042,
      "##lush": 1043,
      "##_reset_": 1044,
      "##ial": 1045,
      "##_q": 1046,
      "##_x": 1047,
      "##lean": 1048,
      "##cpu": 1049,
      "##_node": 1050,
      "pu": 1051,
      "##_mmio": 1052,
      "copy": 1053,
      "##key": 1054,
      "lpfc": 1055,
      "##_sw": 1056,
      "con": 1057,
      "##_reset": 1058,
      "##unc": 1059,
      "##buf": 1060,
      "##enable": 1061,
      "sk": 1062,
      "##ation": 1063,
      "##_readl": 1064,
      "##76": 1065,
      "##_device": 1066,
      "perf": 1067,
      "##_typ": 1068,
      "##_ioremap": 1069,
      "qla": 1070,
      "devm_clk": 1071,
      "##_process": 1072,
      "##test_": 1073,
      "##leg": 1074,
      "##read_": 1075,
      "##ress": 1076,
      "##_resource": 1077,
      "iowrite32": 1078,
      "##acy": 1079,
      "##repare": 1080,
      "##fc": 1081,
      "##nic": 1082,
      "##_mask": 1083,
      "rcu_read_lock_held": 1084,
      "##_inter": 1085,
      "of_property": 1086,
      "##lc": 1087,
      "##_msg": 1088,
      "arch_local": 1089,
      "##itch": 1090,
      "clear_bit": 1091,
      "##_node_": 1092,
      "##v6": 1093,
      "##_clear": 1094,
      "##phy": 1095,
      "##ancel": 1096,
      "##e_skb": 1097,
      "##ware": 1098,
      "##match": 1099,
      "##_unlock": 1100,
      "##date": 1101,
      "##_copy": 1102,
      "nv": 1103,
      "iwl": 1104,
      "##ov": 1105,
      "##at_": 1106,
      "##di": 1107,
      "##calloc": 1108,
      "##mac": 1109,
      "##iffi": 1110,
      "##ult": 1111,
      "##edi": 1112,
      "mp": 1113,
      "##_power": 1114,
      "_dev_warn": 1115,
      "##af": 1116,
      "##_do": 1117,
      "##OR": 1118,
      "free_": 1119,
      "##dec_and_test": 1120,
      "##telimit": 1121,
      "##tail": 1122,
      "f2": 1123,
      "##stat": 1124,
      "##_dp": 1125,
      "##de_": 1126,
      "##quest": 1127,
      "##rigger": 1128,
      "##_coun": 1129,
      "##_printf": 1130,
      "arch_local_irq": 1131,
      "at": 1132,
      "##herent": 1133,
      "##_an": 1134,
      "##_param": 1135,
      "##88": 1136,
      "__f": 1137,
      "##man": 1138,
      "##lmsg": 1139,
      "##ages": 1140,
      "ice_": 1141,
      "##ener": 1142,
      "##_update_bits": 1143,
      "##pp": 1144,
      "##dex": 1145,
      "##ream": 1146,
      "vm": 1147,
      "##rate": 1148,
      "spin_unlock_bh": 1149,
      "##river": 1150,
      "spin_lock_bh": 1151,
      "##block": 1152,
      "##_cap": 1153,
      "dw": 1154,
      "##cmd": 1155,
      "mlxsw": 1156,
      "##_i2c": 1157,
      "un": 1158,
      "##free_": 1159,
      "##cre": 1160,
      "##inode": 1161,
      "##ast_": 1162,
      "##ist": 1163,
      "##control": 1164,
      "##legacy": 1165,
      "##ector": 1166,
      "spi": 1167,
      "##rb": 1168,
      "##sion": 1169,
      "##xt_": 1170,
      "up": 1171,
      "__preempt_count_add": 1172,
      "__preempt_count_dec_and_test": 1173,
      "eth": 1174,
      "devm_clk_get": 1175,
      "##_array": 1176,
      "##_read_u32": 1177,
      "##_has_": 1178,
      "##group": 1179,
      "##_mac": 1180,
      "##_parse_": 1181,
      "ioread32": 1182,
      "##sum": 1183,
      "##_byte": 1184,
      "##rmware": 1185,
      "##_prog": 1186,
      "##dir": 1187,
      "##omic": 1188,
      "##_set_bit": 1189,
      "##file": 1190,
      "##mode": 1191,
      "tcp": 1192,
      "##sr": 1193,
      "dev_name": 1194,
      "##_ring": 1195,
      "##_ma": 1196,
      "bpf": 1197,
      "##_rec": 1198,
      "##ot_": 1199,
      "##_start_": 1200,
      "_raw": 1201,
      "##port": 1202,
      "##_control": 1203,
      "##mu": 1204,
      "msleep": 1205,
      "##_release_": 1206,
      "##vel": 1207,
      "__b": 1208,
      "##_reser": 1209,
      "##usb": 1210,
      "check": 1211,
      "regmap_update_bits": 1212,
      "wa": 1213,
      "##bo": 1214,
      "##region": 1215,
      "res": 1216,
      "##_inc": 1217,
      "phy": 1218,
      "##leanup": 1219,
      "##_as": 1220,
      "strcmp": 1221,
      "##_platform": 1222,
      "##_gpio": 1223,
      "##dc": 1224,
      "##tem": 1225,
      "##udelay": 1226,
      "##_netdev": 1227,
      "iio": 1228,
      "##_comm": 1229,
      "##ero": 1230,
      "##node": 1231,
      "##entry": 1232,
      "##_prob": 1233,
      "##_error": 1234,
      "##ource_": 1235,
      "##89": 1236,
      "rtl8": 1237,
      "##xgb": 1238,
      "__out": 1239,
      "list_del": 1240,
      "##_start": 1241,
      "##_io": 1242,
      "##_flag": 1243,
      "##lete": 1244,
      "##ide": 1245,
      "ci": 1246,
      "dm": 1247,
      "##tional": 1248,
      "##ke": 1249,
      "##ping": 1250,
      "b43legacy": 1251,
      "##_gem": 1252,
      "##_lookup": 1253,
      "##iffies": 1254,
      "##da": 1255,
      "##ext": 1256,
      "rade": 1257,
      "radeon": 1258,
      "blk": 1259,
      "##os": 1260,
      "##_cmd_": 1261,
      "##40": 1262,
      "rv": 1263,
      "##back": 1264,
      "##tach": 1265,
      "##_restore": 1266,
      "##mit_": 1267,
      "##us_": 1268,
      "sh": 1269,
      "##_ratelimit": 1270,
      "##name": 1271,
      "bnx2": 1272,
      "##_I": 1273,
      "##_ctx": 1274,
      "##_log": 1275,
      "mlx4": 1276,
      "##ign": 1277,
      "##xxx": 1278,
      "##_out": 1279,
      "##typ": 1280,
      "##_page": 1281,
      "##_init_map": 1282,
      "##ient": 1283,
      "lockdep_init_map": 1284,
      "##_sup": 1285,
      "regmap_read": 1286,
      "ubi": 1287,
      "##code_": 1288,
      "##sh": 1289,
      "##_jiffies": 1290,
      "___ratelimit": 1291,
      "##per": 1292,
      "##_processor": 1293,
      "##d_flags": 1294,
      "__con": 1295,
      "##trans": 1296,
      "##node_": 1297,
      "##device_": 1298,
      "##_smp": 1299,
      "##fx": 1300,
      "##st_udelay": 1301,
      "__const_udelay": 1302,
      "ath10k": 1303,
      "##eneric": 1304,
      "##s_to_jiffies": 1305,
      "##_range": 1306,
      "##ss_": 1307,
      "might_": 1308,
      "##reach": 1309,
      "ktime_get": 1310,
      "##tf": 1311,
      "__might_sleep": 1312,
      "##_destroy": 1313,
      "might_resched": 1314,
      "v4l2_ctrl": 1315,
      "ov": 1316,
      "__init_work": 1317,
      "##disable": 1318,
      "##11k": 1319,
      "##_cmd": 1320,
      "##_ioremap_resource": 1321,
      "##ct": 1322,
      "kvm": 1323,
      "find_": 1324,
      "##api": 1325,
      "##unreach": 1326,
      "##olio": 1327,
      "##pl": 1328,
      "##unreachable": 1329,
      "##head": 1330,
      "__builtin_unreachable": 1331,
      "##_any": 1332,
      "nfs": 1333,
      "##ule": 1334,
      "##sync": 1335,
      "##zero": 1336,
      "ib": 1337,
      "##ct_": 1338,
      "arch_irqs_disabled_flags": 1339,
      "##valu": 1340,
      "##hc": 1341,
      "##tree_": 1342,
      "##av": 1343,
      "##_processor_id": 1344,
      "##_co": 1345,
      "##_se": 1346,
      "en": 1347,
      "##_bulk": 1348,
      "##debug": 1349,
      "debug_smp": 1350,
      "debug_smp_processor_id": 1351,
      "##urn": 1352,
      "##_unregister": 1353,
      "platform_set_drvdata": 1354,
      "##secs_to_jiffies": 1355,
      "seq_printf": 1356,
      "##_nest_": 1357,
      "gpio": 1358,
      "##cap": 1359,
      "##wait_": 1360,
      "##_create": 1361,
      "put_": 1362,
      "msecs_to_jiffies": 1363,
      "amdgpu_device_": 1364,
      "##_req": 1365,
      "##lookup": 1366,
      "##off": 1367,
      "##_mmio_reg": 1368,
      "##_release": 1369,
      "__dev": 1370,
      "##sert_": 1371,
      "i915_mmio_reg": 1372,
      "##turn": 1373,
      "regulator": 1374,
      "snprintf": 1375,
      "##28": 1376,
      "i915_mmio_reg_offset": 1377,
      "##_header": 1378,
      "##ed_work": 1379,
      "##fac": 1380,
      "##_per": 1381,
      "##_status": 1382,
      "##desc": 1383,
      "##_path": 1384,
      "spin_lock_irq": 1385,
      "_r": 1386,
      "##_dump": 1387,
      "rtnl": 1388,
      "##omman": 1389,
      "##ost": 1390,
      "##count": 1391,
      "lock_is_held": 1392,
      "nlmsg": 1393,
      "##firmware": 1394,
      "##_fin": 1395,
      "##_al": 1396,
      "##exten": 1397,
      "##destroy": 1398,
      "##_strlen": 1399,
      "__in": 1400,
      "nla_nest_": 1401,
      "##2x": 1402,
      "##free_skb": 1403,
      "##_len": 1404,
      "##_page_": 1405,
      "##ds": 1406,
      "mt76": 1407,
      "##action": 1408,
      "##d_get_": 1409,
      "##_dap": 1410,
      "##valid": 1411,
      "##run": 1412,
      "##load_": 1413,
      "##_au": 1414,
      "##_regmap": 1415,
      "##_driver": 1416,
      "##_off": 1417,
      "##from": 1418,
      "dwc": 1419,
      "__s": 1420,
      "##get_offset": 1421,
      "##pa": 1422,
      "clk_prepare": 1423,
      "##25": 1424,
      "##ortify_strlen": 1425,
      "__fortify_strlen": 1426,
      "##locked": 1427,
      "##_valid": 1428,
      "##_link": 1429,
      "##_core": 1430,
      "##attrs": 1431,
      "task": 1432,
      "##idate_": 1433,
      "trace_event_get_offset": 1434,
      "##_mc": 1435,
      "gfs2": 1436,
      "perf_trace_": 1437,
      "##ire": 1438,
      "##70": 1439,
      "##and_c": 1440,
      "irq": 1441,
      "##_read_reg": 1442,
      "##ending": 1443,
      "__drm": 1444,
      "##dup": 1445,
      "##core": 1446,
      "##20": 1447,
      "##add_tail": 1448,
      "##acti": 1449,
      "wl": 1450,
      "##wait": 1451,
      "##ether": 1452,
      "##_wait": 1453,
      "##ass": 1454,
      "##_cleanup": 1455,
      "##_object_": 1456,
      "##_timer": 1457,
      "##_wake_": 1458,
      "##_interrup": 1459,
      "##completion": 1460,
      "##ER": 1461,
      "kmem": 1462,
      "##oll": 1463,
      "##_desc": 1464,
      "##property": 1465,
      "##rdma": 1466,
      "clk_prepare_enable": 1467,
      "rb": 1468,
      "##92": 1469,
      "##rent_": 1470,
      "gen": 1471,
      "##ish": 1472,
      "brcm": 1473,
      "ql": 1474,
      "platform_get_irq": 1475,
      "##hard": 1476,
      "##_reg_write": 1477,
      "##_SB": 1478,
      "##ce": 1479,
      "##scsi": 1480,
      "pre": 1481,
      "##eat": 1482,
      "##ideo": 1483,
      "__warn": 1484,
      "folio": 1485,
      "##_find": 1486,
      "__warn_printk": 1487,
      "##_handle_": 1488,
      "##_cache_": 1489,
      "wait_": 1490,
      "##fier": 1491,
      "##gin": 1492,
      "devm_platform": 1493,
      "##conn": 1494,
      "hci": 1495,
      "##_set_p": 1496,
      "##client": 1497,
      "##ull": 1498,
      "sys": 1499,
      "__i": 1500,
      "##ix": 1501,
      "##u8": 1502,
      "##_sock": 1503,
      "of_property_read_u32": 1504,
      "##_entry": 1505,
      "kcalloc": 1506,
      "##_remove_": 1507,
      "nla_get_": 1508,
      "##2x00": 1509,
      "##FS_S": 1510,
      "##fw": 1511,
      "##hardirq": 1512,
      "##_phy_write": 1513,
      "##ioc": 1514,
      "##sm": 1515,
      "##_sing": 1516,
      "##timeout": 1517,
      "##ify": 1518,
      "##_trans": 1519,
      "##adv": 1520,
      "##ga": 1521,
      "down": 1522,
      "_rtl": 1523,
      "mv": 1524,
      "##next_": 1525,
      "##ard_": 1526,
      "pr": 1527,
      "##get_drvdata": 1528,
      "##_dr": 1529,
      "##_level": 1530,
      "##flow": 1531,
      "##_dsi": 1532,
      "dma_map": 1533,
      "##use_": 1534,
      "ath11k": 1535,
      "##_type": 1536,
      "##ns": 1537,
      "##ile": 1538,
      "file_": 1539,
      "##_usb": 1540,
      "request_": 1541,
      "ma": 1542,
      "nvm": 1543,
      "sctp": 1544,
      "##ei": 1545,
      "##align": 1546,
      "##ut": 1547,
      "list_add_tail": 1548,
      "i915_gem": 1549,
      "platform_get_res": 1550,
      "##inode_": 1551,
      "##bb": 1552,
      "##_port": 1553,
      "set": 1554,
      "strn": 1555,
      "##_reserve": 1556,
      "##unp": 1557,
      "##ark": 1558,
      "##do": 1559,
      "##_mod": 1560,
      "copy_from": 1561,
      "##bus": 1562,
      "##list_": 1563,
      "releas": 1564,
      "##_stream": 1565,
      "##mit": 1566,
      "__devm": 1567,
      "##_table": 1568,
      "atomic_inc": 1569,
      "##_call": 1570,
      "##_or": 1571,
      "##error": 1572,
      "##_di": 1573,
      "##gen": 1574,
      "##km": 1575,
      "##fs_create_": 1576,
      "__outb": 1577,
      "ipv6": 1578,
      "kv": 1579,
      "sd": 1580,
      "##_cal": 1581,
      "##type": 1582,
      "##ommand": 1583,
      "##_probe": 1584,
      "##_match": 1585,
      "wil": 1586,
      "##_remove": 1587,
      "##eth": 1588,
      "atomic_set": 1589,
      "##i2c": 1590,
      "##ning": 1591,
      "cpumask": 1592,
      "qed_": 1593,
      "Page": 1594,
      "##24": 1595,
      "##fcount_": 1596,
      "##channel": 1597,
      "##new": 1598,
      "com": 1599,
      "##pm": 1600,
      "##_rt": 1601,
      "nla_put_u32": 1602,
      "##ate_p": 1603,
      "__writel": 1604,
      "trace_event_buffer": 1605,
      "##_index": 1606,
      "##_regulator": 1607,
      "sm": 1608,
      "##po": 1609,
      "memcmp": 1610,
      "##_conte": 1611,
      "of_device_": 1612,
      "##cip": 1613,
      "##vb": 1614,
      "##_pm": 1615,
      "sched": 1616,
      "##_count": 1617,
      "##nprintf": 1618,
      "f2fs_": 1619,
      "##ipi": 1620,
      "##susp": 1621,
      "##_o": 1622,
      "##sub": 1623,
      "##optional": 1624,
      "##_sg": 1625,
      "##_handler": 1626,
      "qu": 1627,
      "sg": 1628,
      "##_read_config": 1629,
      "##_string": 1630,
      "##out_": 1631,
      "rdma": 1632,
      "i2c_s": 1633,
      "##_atomic": 1634,
      "##clientdata": 1635,
      "##hardirqs_": 1636,
      "##req": 1637,
      "trace_hardirqs_": 1638,
      "##cd": 1639,
      "##cipher": 1640,
      "ah": 1641,
      "##_group": 1642,
      "##etch": 1643,
      "##_save": 1644,
      "##_event": 1645,
      "##_fram": 1646,
      "##50": 1647,
      "##rid": 1648,
      "##_and_": 1649,
      "rts": 1650,
      "##_has": 1651,
      "##rcu": 1652,
      "##lse": 1653,
      "usleep": 1654,
      "usleep_range": 1655,
      "##_dword": 1656,
      "##s_get_": 1657,
      "##ilter": 1658,
      "##_test_": 1659,
      "##and_clear_bit": 1660,
      "##EE": 1661,
      "##our": 1662,
      "##unregister": 1663,
      "d_inode": 1664,
      "##ctrl": 1665,
      "tb": 1666,
      "##aster": 1667,
      "fw": 1668,
      "##_cfg": 1669,
      "kstr": 1670,
      "##tifier": 1671,
      "##_event_": 1672,
      "##ply": 1673,
      "##PL": 1674,
      "##_single_": 1675,
      "inet_": 1676,
      "sprintf": 1677,
      "##_master": 1678,
      "##coherent": 1679,
      "##_mq": 1680,
      "##FS": 1681,
      "##_switch": 1682,
      "copy_from_user": 1683,
      "hw": 1684,
      "##_flush": 1685,
      "nfp": 1686,
      "##_wr": 1687,
      "ps": 1688,
      "##_fill": 1689,
      "test_and_clear_bit": 1690,
      "##_pull": 1691,
      "##_spi": 1692,
      "##arch": 1693,
      "##tm": 1694,
      "##_del": 1695,
      "##ted_": 1696,
      "##_cr": 1697,
      "##_sof": 1698,
      "##FS_SB": 1699,
      "mlx5e_": 1700,
      "##down": 1701,
      "##72": 1702,
      "scnprintf": 1703,
      "inode_": 1704,
      "##_dec": 1705,
      "##request": 1706,
      "##mar": 1707,
      "##_ct_": 1708,
      "comedi": 1709,
      "##ess_": 1710,
      "##start": 1711,
      "##ast": 1712,
      "##_sb": 1713,
      "##ize": 1714,
      "##_inode_": 1715,
      "##atadv": 1716,
      "do": 1717,
      "##handle_": 1718,
      "##keup": 1719,
      "ixgb": 1720,
      "##gm": 1721,
      "##cach": 1722,
      "batadv": 1723,
      "tc": 1724,
      "dis": 1725,
      "##30": 1726,
      "##ournal": 1727,
      "net_": 1728,
      "mlxsw_sp": 1729,
      "dwc2": 1730,
      "##wi": 1731,
      "size_": 1732,
      "##dmi": 1733,
      "##bus_": 1734,
      "queu": 1735,
      "##be": 1736,
      "##lm": 1737,
      "pci_read_config": 1738,
      "##mm": 1739,
      "##table": 1740,
      "r100": 1741,
      "##000": 1742,
      "##_iter": 1743,
      "##_running": 1744,
      "##_unmap": 1745,
      "iio_priv": 1746,
      "hp": 1747,
      "##num": 1748,
      "_dev_printk": 1749,
      "##_hash": 1750,
      "##_urb": 1751,
      "write_": 1752,
      "##sert": 1753,
      "il": 1754,
      "##ume": 1755,
      "##AT": 1756,
      "##vc": 1757,
      "##_print": 1758,
      "##71": 1759,
      "##tx_": 1760,
      "##bbreg": 1761,
      "##_delay": 1762,
      "##b2": 1763,
      "##load": 1764,
      "##handle": 1765,
      "##ith": 1766,
      "kfree_skb": 1767,
      "##unprepare": 1768,
      "##db": 1769,
      "##_C": 1770,
      "##trigger": 1771,
      "iwl_m": 1772,
      "##_bas": 1773,
      "bu": 1774,
      "devm_regulator": 1775,
      "##_disable_unprepare": 1776,
      "__readl": 1777,
      "xen": 1778,
      "##_trigger": 1779,
      "##_write32": 1780,
      "##unalign": 1781,
      "##one_": 1782,
      "skb_queue_": 1783,
      "##ca": 1784,
      "##dm": 1785,
      "sock_net": 1786,
      "##disc": 1787,
      "##ug": 1788,
      "cancel": 1789,
      "##_tx_": 1790,
      "devm_request_": 1791,
      "to_i": 1792,
      "arch_irqs_disabled": 1793,
      "##_pa": 1794,
      "wait_for": 1795,
      "init_completion": 1796,
      "##header": 1797,
      "##relse": 1798,
      "##vf": 1799,
      "##byte": 1800,
      "flow": 1801,
      "EX": 1802,
      "##_channel": 1803,
      "nft_": 1804,
      "##_params": 1805,
      "##quire": 1806,
      "##pcm": 1807,
      "im": 1808,
      "##faul": 1809,
      "##_flow": 1810,
      "##_0": 1811,
      "##_clock": 1812,
      "##amp": 1813,
      "##od_": 1814,
      "kref": 1815,
      "##value": 1816,
      "##a_c": 1817,
      "##urb": 1818,
      "##_ver": 1819,
      "schedule_": 1820,
      "##ring": 1821,
      "trace_event_get_offsets_": 1822,
      "xf": 1823,
      "##_size_": 1824,
      "init_timer": 1825,
      "##_request": 1826,
      "##_completion": 1827,
      "devm_gpio": 1828,
      "##tcp": 1829,
      "##get_match": 1830,
      "iwl_mvm": 1831,
      "comp": 1832,
      "clk_disable_unprepare": 1833,
      "##_pages": 1834,
      "##OR_": 1835,
      "_raw_write_": 1836,
      "##get_match_data": 1837,
      "file_inode": 1838,
      "##_regs": 1839,
      "##_be": 1840,
      "##ctx": 1841,
      "##bio": 1842,
      "##_pcie_": 1843,
      "##_OR_": 1844,
      "##_send": 1845,
      "##xt": 1846,
      "skb_en": 1847,
      "rtw89": 1848,
      "init_timer_key": 1849,
      "##83": 1850,
      "##ipi_dsi": 1851,
      "ktime_add_": 1852,
      "##mat_": 1853,
      "##_ep": 1854,
      "__dynamic_netdev": 1855,
      "__dynamic_netdev_dbg": 1856,
      "##ence_": 1857,
      "##ransp": 1858,
      "##ron": 1859,
      "rcu_read_lock_any": 1860,
      "rcu_read_lock_any_held": 1861,
      "##_bus": 1862,
      "setup": 1863,
      "##ain": 1864,
      "##elper": 1865,
      "##fault": 1866,
      "i40": 1867,
      "##_wake_up": 1868,
      "##wifi": 1869,
      "iscsi": 1870,
      "devm_platform_ioremap_resource": 1871,
      "bpf_prog": 1872,
      "##18": 1873,
      "##_state_": 1874,
      "ktime_add_us": 1875,
      "##_ext": 1876,
      "snd_soc_component_get_drvdata": 1877,
      "##fp": 1878,
      "##_ro": 1879,
      "ubifs_": 1880,
      "##_da": 1881,
      "##find_": 1882,
      "##_soft_": 1883,
      "##arri": 1884,
      "##auto": 1885,
      "##_coherent": 1886,
      "##_next": 1887,
      "cifs": 1888,
      "##arrier": 1889,
      "##apter": 1890,
      "##d_po": 1891,
      "mtk": 1892,
      "##li": 1893,
      "##eature": 1894,
      "##_phy_read": 1895,
      "##eigh": 1896,
      "##_func": 1897,
      "platform_get_resource": 1898,
      "##sig": 1899,
      "##_btree_": 1900,
      "##_pool": 1901,
      "drx": 1902,
      "dev_get_p": 1903,
      "##latdata": 1904,
      "##smb": 1905,
      "dev_get_platdata": 1906,
      "##line_": 1907,
      "##create_": 1908,
      "##ave_": 1909,
      "vir": 1910,
      "##_return": 1911,
      "##rag": 1912,
      "##_acc": 1913,
      "refcount_": 1914,
      "##mas": 1915,
      "EXT": 1916,
      "__wake_up": 1917,
      "r100_mm": 1918,
      "##_done": 1919,
      "##_ib": 1920,
      "##net_": 1921,
      "##d_set_": 1922,
      "cx2": 1923,
      "read_": 1924,
      "##fl": 1925,
      "##lete_": 1926,
      "vb2": 1927,
      "##rep": 1928,
      "##egin": 1929,
      "##enabled": 1930,
      "##eed": 1931,
      "##_queue": 1932,
      "##FOR": 1933,
      "##_sn": 1934,
      "vmw": 1935,
      "##ery": 1936,
      "##FORM": 1937,
      "video": 1938,
      "test_and": 1939,
      "##ernel": 1940,
      "intel_d": 1941,
      "f2fs": 1942,
      "##_ref": 1943,
      "##_exit": 1944,
      "##_qu": 1945,
      "##remo": 1946,
      "##ipe": 1947,
      "##ory": 1948,
      "##_ip": 1949,
      "##ymb": 1950,
      "##coder": 1951,
      "##1000": 1952,
      "##_pending": 1953,
      "##ymbol": 1954,
      "pci_enable_": 1955,
      "##_ap": 1956,
      "##table_": 1957,
      "##d_to": 1958,
      "of_get_": 1959,
      "##_alloc_coherent": 1960,
      "##d_pointer": 1961,
      "v4l2_ctrl_new": 1962,
      "skb_end_pointer": 1963,
      "_raw_read_": 1964,
      "##oul": 1965,
      "##_workqueue": 1966,
      "##PLAT": 1967,
      "##PLATFORM": 1968,
      "##ether_addr": 1969,
      "##_doma": 1970,
      "sdhci": 1971,
      "##_rule_": 1972,
      "##queues": 1973,
      "##te_data": 1974,
      "##_exten": 1975,
      "##_type_": 1976,
      "##fd_": 1977,
      "##ant_": 1978,
      "i915_gem_object_": 1979,
      "##86": 1980,
      "tip": 1981,
      "##master": 1982,
      "##_request_region": 1983,
      "##_rd": 1984,
      "##tfs_": 1985,
      "##_all": 1986,
      "##dirty": 1987,
      "##_open": 1988,
      "as": 1989,
      "nvkm": 1990,
      "##task": 1991,
      "skb_t": 1992,
      "##releas": 1993,
      "test_and_set_bit": 1994,
      "##reset": 1995,
      "##extent_": 1996,
      "of_node_": 1997,
      "##chip": 1998,
      "##_host_": 1999,
      "##lcnic": 2000,
      "##mul": 2001,
      "ocp": 2002,
      "##fin": 2003,
      "__set_bit": 2004,
      "##_wmi": 2005,
      "##list": 2006,
      "##so": 2007,
      "##ext4": 2008,
      "rtl_set_": 2009,
      "##_head": 2010,
      "##code": 2011,
      "stm": 2012,
      "bcm": 2013,
      "##e_pr": 2014,
      "drxj": 2015,
      "##ph": 2016,
      "##_dirty": 2017,
      "drxj_dap": 2018,
      "##tib": 2019,
      "IS_PLATFORM": 2020,
      "mmc": 2021,
      "##ace": 2022,
      "##face_": 2023,
      "fc": 2024,
      "##_cp": 2025,
      "bnxt_": 2026,
      "##_crtc": 2027,
      "##waitqueue_": 2028,
      "mipi_dsi": 2029,
      "rcu_read_lock_bh": 2030,
      "tr": 2031,
      "##vlan": 2032,
      "##65": 2033,
      "##mod": 2034,
      "qlcnic": 2035,
      "##mark": 2036,
      "##page": 2037,
      "##hdr": 2038,
      "##9k": 2039,
      "input_set_": 2040,
      "##_th": 2041,
      "##valid_": 2042,
      "##lane_": 2043,
      "cp": 2044,
      "dib": 2045,
      "sb": 2046,
      "##ources": 2047,
      "##_cach": 2048,
      "##ive": 2049,
      "##lb": 2050,
      "##fn": 2051,
      "##LL": 2052,
      "ath9k": 2053,
      "##cs": 2054,
      "##bas": 2055,
      "netif_running": 2056,
      "##ransport_": 2057,
      "##_generic": 2058,
      "netdev_err": 2059,
      "##_dbg_print": 2060,
      "nf_ct_": 2061,
      "efx": 2062,
      "##_end": 2063,
      "##_create_p": 2064,
      "ser": 2065,
      "ixgbe_": 2066,
      "##dt_": 2067,
      "##play": 2068,
      "##_sched": 2069,
      "__devm_regmap": 2070,
      "##room": 2071,
      "queue_": 2072,
      "device_property": 2073,
      "##status": 2074,
      "##_num": 2075,
      "##_write_reg16": 2076,
      "hcl": 2077,
      "rtl8xxx": 2078,
      "rtl8xxxu": 2079,
      "pn": 2080,
      "__inb": 2081,
      "##es_": 2082,
      "##uc": 2083,
      "##_rq": 2084,
      "brcmf": 2085,
      "io": 2086,
      "__init_waitqueue_": 2087,
      "__init_waitqueue_head": 2088,
      "##dt": 2089,
      "register": 2090,
      "##_chip": 2091,
      "##_pack": 2092,
      "ig": 2093,
      "acpi_u": 2094,
      "wl12": 2095,
      "##max": 2096,
      "##NU": 2097,
      "##_output_": 2098,
      "del": 2099,
      "brelse": 2100,
      "##sor": 2101,
      "fs": 2102,
      "i40e_": 2103,
      "bnx2x": 2104,
      "##_delayed_work": 2105,
      "ata": 2106,
      "##interrup": 2107,
      "##_bool": 2108,
      "au": 2109,
      "dc": 2110,
      "##iv": 2111,
      "drxj_dap_write_reg16": 2112,
      "##yname": 2113,
      "##NULL": 2114,
      "##exit": 2115,
      "##disabled": 2116,
      "strcpy": 2117,
      "##_format_": 2118,
      "##box": 2119,
      "##start_": 2120,
      "e1000": 2121,
      "bio": 2122,
      "dma_set_": 2123,
      "acpi_ut_": 2124,
      "##rans_": 2125,
      "kstrto": 2126,
      "##update_bits": 2127,
      "__k": 2128,
      "##cr": 2129,
      "nil": 2130,
      "##35": 2131,
      "##rity": 2132,
      "##fail": 2133,
      "IS_ERR_OR_": 2134,
      "IS_ERR_OR_NULL": 2135,
      "arch_local_irq_save": 2136,
      "v4l2_ctrl_new_st": 2137,
      "##_journal": 2138,
      "BTR": 2139,
      "EXT4": 2140,
      "##_cq": 2141,
      "prepare": 2142,
      "ufs": 2143,
      "##_push": 2144,
      "##er_addr": 2145,
      "rtl_set_bbreg": 2146,
      "##ped": 2147,
      "##_acti": 2148,
      "cx": 2149,
      "##wreg": 2150,
      "##enc": 2151,
      "##fifo": 2152,
      "wait_for_completion": 2153,
      "##enable_": 2154,
      "##_fence_": 2155,
      "param": 2156,
      "##_address": 2157,
      "##nl_is_held": 2158,
      "##por": 2159,
      "##cover": 2160,
      "##sa": 2161,
      "##_single_attrs": 2162,
      "##ecu": 2163,
      "##_ser": 2164,
      "##_submit_": 2165,
      "##cmd_": 2166,
      "ether_addr": 2167,
      "debugfs_create_": 2168,
      "snd_pcm": 2169,
      "i2c_set_": 2170,
      "##_scan": 2171,
      "reset_": 2172,
      "##s_init": 2173,
      "##_read32": 2174,
      "##sn": 2175,
      "##chil": 2176,
      "##fx_": 2177,
      "xfs_dir": 2178,
      "##ialize": 2179,
      "##_mark": 2180,
      "##_bits": 2181,
      "atm": 2182,
      "dma_alloc_coherent": 2183,
      "crypto_a": 2184,
      "##_notifier": 2185,
      "app": 2186,
      "arch_local_irq_restore": 2187,
      "##_carrier": 2188,
      "##arse_": 2189,
      "##mbus": 2190,
      "##index": 2191,
      "__drm_dbg": 2192,
      "add_": 2193,
      "##fq": 2194,
      "##_mode_": 2195,
      "##_read_bool": 2196,
      "__devm_regmap_init_": 2197,
      "##ead_": 2198,
      "##_down": 2199,
      "r8": 2200,
      "##buf_alloc": 2201,
      "##fault_": 2202,
      "snd_h": 2203,
      "##_can": 2204,
      "nvme_": 2205,
      "##_sys": 2206,
      "to_i915": 2207,
      "strncmp": 2208,
      "dvb": 2209,
      "##resent": 2210,
      "of_device_get_match_data": 2211,
      "##suspend": 2212,
      "##abs": 2213,
      "##_commit": 2214,
      "##wifiex": 2215,
      "lo": 2216,
      "BTRFS_I": 2217,
      "##_controller": 2218,
      "dp": 2219,
      "##_program": 2220,
      "##host_": 2221,
      "##qual": 2222,
      "##rf": 2223,
      "rt2x00": 2224,
      "##atomic": 2225,
      "tty": 2226,
      "__builtin_bswap64": 2227,
      "__n": 2228,
      "##_fetch": 2229,
      "##den": 2230,
      "##wr": 2231,
      "##_poll": 2232,
      "resource_": 2233,
      "release_": 2234,
      "##sb": 2235,
      "##lect_": 2236,
      "##tri": 2237,
      "##devdata": 2238,
      "##_update": 2239,
      "##priv": 2240,
      "pci_disable_": 2241,
      "##_tun": 2242,
      "##_fifo": 2243,
      "napi": 2244,
      "##_em": 2245,
      "amdgpu_device_wreg": 2246,
      "##_wait_for": 2247,
      "##90": 2248,
      "##ize_": 2249,
      "##utdown": 2250,
      "bpf_prog_array": 2251,
      "snd_soc_component_update_bits": 2252,
      "devm_kcalloc": 2253,
      "##770": 2254,
      "##fb": 2255,
      "##_wreg": 2256,
      "##ultic": 2257,
      "##user": 2258,
      "##imp": 2259,
      "ia_c": 2260,
      "##setup": 2261,
      "__skb": 2262,
      "##_cancel": 2263,
      "##_min": 2264,
      "##_fa": 2265,
      "tcf": 2266,
      "##validate_": 2267,
      "##75": 2268,
      "##xx_": 2269,
      "##_ioc": 2270,
      "##_to_user": 2271,
      "##d_c": 2272,
      "write16": 2273,
      "##su": 2274,
      "igb": 2275,
      "##_decode_": 2276,
      "##_bytes": 2277,
      "##mal": 2278,
      "##_drv": 2279,
      "##abil": 2280,
      "##_write_config": 2281,
      "##update": 2282,
      "##eed_": 2283,
      "##adata": 2284,
      "xfrm": 2285,
      "##_interruptib": 2286,
      "ip_v": 2287,
      "##unmap": 2288,
      "ni": 2289,
      "##ick": 2290,
      "bpf_prog_array_valid": 2291,
      "##trigger_soft_": 2292,
      "##trigger_soft_disabled": 2293,
      "trace_trigger_soft_disabled": 2294,
      "perf_trace_buf_alloc": 2295,
      "trace_event_buffer_reserve": 2296,
      "##delayed_work": 2297,
      "rx": 2298,
      "nfs4": 2299,
      "##_list": 2300,
      "##_seg": 2301,
      "##_met": 2302,
      "##ounmap": 2303,
      "lan": 2304,
      "writew": 2305,
      "##late_": 2306,
      "##isp": 2307,
      "netif_carrier": 2308,
      "pci_get_drvdata": 2309,
      "##active": 2310,
      "##_word": 2311,
      "##_fini": 2312,
      "##mt": 2313,
      "##sys": 2314,
      "devlink": 2315,
      "##_bpf": 2316,
      "##_writereg": 2317,
      "##s_r": 2318,
      "##ommu": 2319,
      "i2c_set_clientdata": 2320,
      "clear": 2321,
      "##stream": 2322,
      "intel_de_": 2323,
      "##du": 2324,
      "RE": 2325,
      "##36": 2326,
      "bit": 2327,
      "of_node_put": 2328,
      "i_size_": 2329,
      "##eer": 2330,
      "flow_rule_": 2331,
      "F2": 2332,
      "##old": 2333,
      "##_cur": 2334,
      "hclge_": 2335,
      "##_timeout": 2336,
      "lockdep_rt": 2337,
      "lockdep_rtnl_is_held": 2338,
      "page_": 2339,
      "##gr": 2340,
      "##unk": 2341,
      "##_drm": 2342,
      "##wm": 2343,
      "dlm": 2344,
      "ass": 2345,
      "##address": 2346,
      "fin": 2347,
      "flow_rule_match": 2348,
      "##acc": 2349,
      "##_vma": 2350,
      "##_helper": 2351,
      "get_unalign": 2352,
      "##_clo": 2353,
      "##_seq": 2354,
      "##_multic": 2355,
      "##item": 2356,
      "##_vlan": 2357,
      "##lv": 2358,
      "##FS2": 2359,
      "##_stats_": 2360,
      "##dec": 2361,
      "##_filter": 2362,
      "##ting": 2363,
      "##_notify": 2364,
      "##_region": 2365,
      "__symbol": 2366,
      "cd": 2367,
      "##edia": 2368,
      "v4l2_ctrl_new_std": 2369,
      "##iphy": 2370,
      "EXT4_SB": 2371,
      "##d_irq": 2372,
      "##object": 2373,
      "##_brid": 2374,
      "rv770": 2375,
      "##kl": 2376,
      "##open": 2377,
      "##ctl": 2378,
      "##_enter": 2379,
      "devm_ioremap_resource": 2380,
      "##olic": 2381,
      "##ession": 2382,
      "##_list_": 2383,
      "unlock": 2384,
      "dr": 2385,
      "##e_cre": 2386,
      "atmel": 2387,
      "usb_get_": 2388,
      "##laim": 2389,
      "##_device_register": 2390,
      "writeb": 2391,
      "##_iio": 2392,
      "##scan": 2393,
      "##97": 2394,
      "to_m": 2395,
      "##_tr": 2396,
      "pm_runtime_get_": 2397,
      "##_command": 2398,
      "preempt_": 2399,
      "##_release_region": 2400,
      "resource_size": 2401,
      "##raw_output_": 2402,
      "trace_raw_output_": 2403,
      "##a2": 2404,
      "##ms": 2405,
      "##_configure": 2406,
      "copy_to_user": 2407,
      "xa": 2408,
      "irdma": 2409,
      "##gpio": 2410,
      "rtl_write_": 2411,
      "##sign": 2412,
      "trace_x": 2413,
      "bitmap": 2414,
      "##ged": 2415,
      "##6kl": 2416,
      "dev_set_drvdata": 2417,
      "strs": 2418,
      "dev_net": 2419,
      "dma_set_mask": 2420,
      "##g3": 2421,
      "params_": 2422,
      "##func": 2423,
      "##comm": 2424,
      "##ru": 2425,
      "kmem_cache_": 2426,
      "##_rc": 2427,
      "##nested": 2428,
      "__create_p": 2429,
      "##indow": 2430,
      "##ated": 2431,
      "iov": 2432,
      "##seq": 2433,
      "__ext4": 2434,
      "##vol": 2435,
      "##iter": 2436,
      "tipc": 2437,
      "##_qp": 2438,
      "##_table_": 2439,
      "##_submit": 2440,
      "##trace_": 2441,
      "##file_": 2442,
      "##_dsp": 2443,
      "pci_write_config": 2444,
      "##_task": 2445,
      "##trylock": 2446,
      "ovl": 2447,
      "mpi": 2448,
      "nou": 2449,
      "##veau": 2450,
      "##idth": 2451,
      "nouveau": 2452,
      "pm_runtime_put_": 2453,
      "mod_": 2454,
      "qdisc": 2455,
      "##rip": 2456,
      "##ume_": 2457,
      "##93": 2458,
      "##temp": 2459,
      "__create_pipe": 2460,
      "##engin": 2461,
      "##state_": 2462,
      "ahd_": 2463,
      "##82": 2464,
      "##done": 2465,
      "##hi": 2466,
      "trace_hardirqs_on": 2467,
      "ath6kl": 2468,
      "des": 2469,
      "##has_": 2470,
      "##e_pages": 2471,
      "##ignal": 2472,
      "##_free_coherent": 2473,
      "##_context_": 2474,
      "##_reg_read": 2475,
      "##_back": 2476,
      "preempt_count": 2477,
      "del_timer": 2478,
      "##tor": 2479,
      "##fram": 2480,
      "##ool": 2481,
      "##ame_": 2482,
      "i2c_smbus": 2483,
      "rt28": 2484,
      "atomic_dec": 2485,
      "_b": 2486,
      "cxgb": 2487,
      "##tio": 2488,
      "##dom": 2489,
      "##ested_": 2490,
      "##_engin": 2491,
      "##_tim": 2492,
      "b43legacy_phy_write": 2493,
      "i_size_read": 2494,
      "##imple_": 2495,
      "rt2800": 2496,
      "##clock": 2497,
      "##lot": 2498,
      "##_max": 2499,
      "##_flags": 2500,
      "##dpo": 2501,
      "size_mul": 2502,
      "##_sen": 2503,
      "nla_put_u8": 2504,
      "nilfs": 2505,
      "nand_": 2506,
      "##min": 2507,
      "##t_s": 2508,
      "##met": 2509,
      "##t_get_": 2510,
      "##24xx": 2511,
      "_rtl_dbg_print": 2512,
      "i2c_get_": 2513,
      "##_fix": 2514,
      "##_pointer": 2515,
      "mc": 2516,
      "##_connector": 2517,
      "##_complete": 2518,
      "devm_gpiod_get_": 2519,
      "##_common": 2520,
      "hash": 2521,
      "##_show": 2522,
      "##_endpo": 2523,
      "##_plane_": 2524,
      "##ability": 2525,
      "##ould_": 2526,
      "##ong": 2527,
      "##dump": 2528,
      "##string": 2529,
      "##_is_locked": 2530,
      "rtsx": 2531,
      "##todate": 2532,
      "##ient_": 2533,
      "sdio": 2534,
      "##_mmio_info": 2535,
      "##_stats": 2536,
      "##_sta": 2537,
      "update_": 2538,
      "##notify": 2539,
      "nla_data": 2540,
      "__might_fault": 2541,
      "##_dapm": 2542,
      "##bl": 2543,
      "##lave_": 2544,
      "bfa": 2545,
      "##only": 2546,
      "##_inst": 2547,
      "##feature": 2548,
      "##prob": 2549,
      "stm32": 2550,
      "##45": 2551,
      "hfs": 2552,
      "##nt_": 2553,
      "kth": 2554,
      "##ported": 2555,
      "##_intr": 2556,
      "##eld_": 2557,
      "##flush": 2558,
      "##has": 2559,
      "##cep": 2560,
      "##_vm": 2561,
      "##aa": 2562,
      "xdr": 2563,
      "##cache_": 2564,
      "b43_phy": 2565,
      "qed": 2566,
      "##tt_": 2567,
      "pci_set_": 2568,
      "##ance": 2569,
      "iov_iter": 2570,
      "##ck": 2571,
      "omap": 2572,
      "setup_mmio_info": 2573,
      "##_if": 2574,
      "##riov": 2575,
      "##fi1": 2576,
      "##_with": 2577,
      "##_to_dev": 2578,
      "##_SK": 2579,
      "##_fl": 2580,
      "##tv": 2581,
      "##pci": 2582,
      "unregister": 2583,
      "cancel_delayed_work": 2584,
      "##call": 2585,
      "##ed_le": 2586,
      "##gu": 2587,
      "##return": 2588,
      "vga": 2589,
      "##dit_": 2590,
      "ufshc": 2591,
      "##vec": 2592,
      "##_gen": 2593,
      "##_pip": 2594,
      "pmd_": 2595,
      "reset_control": 2596,
      "##_iomap": 2597,
      "devm_request_irq": 2598,
      "##ping_error": 2599,
      "dma_free_coherent": 2600,
      "list_add": 2601,
      "##tfm": 2602,
      "xfs_btree_": 2603,
      "wiphy": 2604,
      "##_shutdown": 2605,
      "##_eth": 2606,
      "##_subdev": 2607,
      "##olicy": 2608,
      "nla_get_u32": 2609,
      "##_skcipher": 2610,
      "list_del_init": 2611,
      "max": 2612,
      "xfs_dir2": 2613,
      "##_z": 2614,
      "##rreg": 2615,
      "##_sec": 2616,
      "##eprom": 2617,
      "##reade": 2618,
      "__drm_err": 2619,
      "##e_path": 2620,
      "##ff": 2621,
      "##ree": 2622,
      "##ptr": 2623,
      "preempt_count_": 2624,
      "##alk": 2625,
      "up_write": 2626,
      "hid_": 2627,
      "##iser": 2628,
      "##_pro": 2629,
      "##600": 2630,
      "##random": 2631,
      "##_sli": 2632,
      "##autosuspend": 2633,
      "pci_enable_device": 2634,
      "key": 2635,
      "##_hal": 2636,
      "nfs_": 2637,
      "##_component": 2638,
      "##mapping": 2639,
      "##_ptr": 2640,
      "##qp": 2641,
      "##threade": 2642,
      "smb": 2643,
      "##ls": 2644,
      "##card_": 2645,
      "##let_": 2646,
      "##bs": 2647,
      "##_rx_": 2648,
      "##attach": 2649,
      "rcu_read_lock_bh_held": 2650,
      "qib": 2651,
      "intel_g": 2652,
      "##_write16": 2653,
      "##_check_trigger": 2654,
      "##netlink": 2655,
      "##ath10k": 2656,
      "##spi": 2657,
      "##_pin": 2658,
      "##dac": 2659,
      "prepare_to": 2660,
      "##direc": 2661,
      "##nt": 2662,
      "proc": 2663,
      "##_src": 2664,
      "##sume_skb": 2665,
      "##_attach": 2666,
      "##_pars": 2667,
      "##DE": 2668,
      "##rack": 2669,
      "F2FS_I": 2670,
      "##5k": 2671,
      "##atib": 2672,
      "comedi_check_trigger": 2673,
      "pcim": 2674,
      "##host": 2675,
      "##tions": 2676,
      "pci_set_master": 2677,
      "otx": 2678,
      "##inc": 2679,
      "##smb3": 2680,
      "##byname": 2681,
      "devm_gpiod_get_optional": 2682,
      "pci_disable_device": 2683,
      "##rpc": 2684,
      "xhci": 2685,
      "dma_mapping_error": 2686,
      "##_to_cpu": 2687,
      "snd_soc_dapm": 2688,
      "##_base_": 2689,
      "finish": 2690,
      "##ded": 2691,
      "##threaded_irq": 2692,
      "##_fir": 2693,
      "##tal": 2694,
      "wm": 2695,
      "##nr": 2696,
      "btf": 2697,
      "readb": 2698,
      "##debug_level": 2699,
      "cap": 2700,
      "##wakeup": 2701,
      "##_print_": 2702,
      "##troy": 2703,
      "##e_phy": 2704,
      "print_": 2705,
      "##_calc": 2706,
      "destroy": 2707,
      "##prep": 2708,
      "qla2x00": 2709,
      "##723": 2710,
      "pm_runtime_enable": 2711,
      "__symbol_get": 2712,
      "##ectors": 2713,
      "##sas": 2714,
      "trace_smb3": 2715,
      "##_async": 2716,
      "r100_mm_wreg": 2717,
      "##kill": 2718,
      "seq_put": 2719,
      "##_dai": 2720,
      "lpfc_sli": 2721,
      "amdgpu_device_rreg": 2722,
      "##_rreg": 2723,
      "iounmap": 2724,
      "##ocal": 2725,
      "##_sm": 2726,
      "##_resource_": 2727,
      "gp": 2728,
      "assfail": 2729,
      "##ust_": 2730,
      "_raw_spin_": 2731,
      "xfs_i": 2732,
      "otx2": 2733,
      "##cb": 2734,
      "##fg80211": 2735,
      "down_write": 2736,
      "of_property_read_bool": 2737,
      "cc": 2738,
      "low": 2739,
      "##_stack": 2740,
      "##acpi": 2741,
      "##_net_": 2742,
      "##tn": 2743,
      "##Reg": 2744,
      "smu": 2745,
      "##late": 2746,
      "##_equal": 2747,
      "##allocate_": 2748,
      "##_get_rate": 2749,
      "##_file": 2750,
      "##adc": 2751,
      "##window": 2752,
      "##lp": 2753,
      "##uster": 2754,
      "##busy": 2755,
      "qla24xx": 2756,
      "gpiod_set_": 2757,
      "##_resume": 2758,
      "##dog": 2759,
      "##isc": 2760,
      "##2m": 2761,
      "##_ctl": 2762,
      "##rp": 2763,
      "##_cb": 2764,
      "##release": 2765,
      "##_interruptible_": 2766,
      "__iwl": 2767,
      "##_generic_write": 2768,
      "check_fw": 2769,
      "##_uncore": 2770,
      "##b_p": 2771,
      "##arget_": 2772,
      "smc": 2773,
      "##netdev": 2774,
      "##_ns": 2775,
      "##_recv": 2776,
      "##atchdog": 2777,
      "platform_get_drvdata": 2778,
      "##_get_optional": 2779,
      "##_save_": 2780,
      "pci_set_drvdata": 2781,
      "trace_hardirqs_off": 2782,
      "mipi_dsi_generic_write": 2783,
      "##ak": 2784,
      "##_trace": 2785,
      "request_irq": 2786,
      "##child": 2787,
      "##fix": 2788,
      "##wq": 2789,
      "##_adapter": 2790,
      "##60": 2791,
      "##ecurity": 2792,
      "##_format_info": 2793,
      "b43legacy_phy_read": 2794,
      "genlmsg": 2795,
      "##_mt": 2796,
      "Si": 2797,
      "##ym": 2798,
      "##lob": 2799,
      "##cryp": 2800,
      "dev_to": 2801,
      "##ace_": 2802,
      "ktime_get_": 2803,
      "tasklet_": 2804,
      "skb_put": 2805,
      "##_endpoint_": 2806,
      "##_ok": 2807,
      "##EEE": 2808,
      "##_alloc_skb": 2809,
      "check_fwstate": 2810,
      "##hp": 2811,
      "##_u64": 2812,
      "i2c_smbus_read": 2813,
      "cre": 2814,
      "##_ev": 2815,
      "##u16": 2816,
      "##transaction": 2817,
      "##remove_": 2818,
      "try": 2819,
      "##_hc": 2820,
      "kvfree": 2821,
      "hdmi": 2822,
      "SiS_": 2823,
      "##esp": 2824,
      "up_read": 2825,
      "local": 2826,
      "##ove_": 2827,
      "##AC": 2828,
      "mwifiex": 2829,
      "##_sriov": 2830,
      "##gs": 2831,
      "flush": 2832,
      "idr": 2833,
      "sun": 2834,
      "##78": 2835,
      "##_may": 2836,
      "##ux": 2837,
      "##v4": 2838,
      "##_pll": 2839,
      "##mbus_": 2840,
      "##1x": 2841,
      "##_get_s": 2842,
      "##create": 2843,
      "rc": 2844,
      "##report_": 2845,
      "##EEE80211": 2846,
      "pte_": 2847,
      "##trace": 2848,
      "dma_unmap": 2849,
      "##ops": 2850,
      "##FS2_I": 2851,
      "##va": 2852,
      "blk_mq": 2853,
      "##arget": 2854,
      "##_counter": 2855,
      "ip_set_": 2856,
      "atomic64": 2857,
      "##handler": 2858,
      "##able_irq": 2859,
      "##_blk": 2860,
      "ieee80211_is": 2861,
      "free_irq": 2862,
      "##_u32": 2863,
      "afs_": 2864,
      "drm_format_info": 2865,
      "##_wakeup": 2866,
      "##_next_": 2867,
      "##_device_alloc": 2868,
      "vx": 2869,
      "##_code": 2870,
      "##_resources": 2871,
      "##avail": 2872,
      "##_attr": 2873,
      "devm_iio": 2874,
      "mptcp": 2875,
      "##_get_by": 2876,
      "##width": 2877,
      "##stats": 2878,
      "consume_skb": 2879,
      "##order": 2880,
      "##clk": 2881,
      "skb_pull": 2882,
      "##_caller": 2883,
      "##_mess": 2884,
      "##ps": 2885,
      "##pro": 2886,
      "rtsx_": 2887,
      "__devm_regmap_init_i2c": 2888,
      "##_ext_": 2889,
      "##fill": 2890,
      "##_dst_": 2891,
      "syn": 2892,
      "##_SKB": 2893,
      "##_zero": 2894,
      "##_frame_": 2895,
      "##_post_": 2896,
      "##v0": 2897,
      "##_preempt_": 2898,
      "##trans_": 2899,
      "ioremap": 2900,
      "ufshcd_": 2901,
      "##can": 2902,
      "##_issu": 2903,
      "rvu": 2904,
      "##is_cpu": 2905,
      "saa": 2906,
      "u64": 2907,
      "##21": 2908,
      "##_ready": 2909,
      "dec": 2910,
      "##rx_": 2911,
      "##generic": 2912,
      "##_transfer": 2913,
      "##elin": 2914,
      "##cq": 2915,
      "##t3": 2916,
      "_raw_write_lock": 2917,
      "drb": 2918,
      "##find": 2919,
      "skb_head": 2920,
      "##_compatib": 2921,
      "##rim": 2922,
      "ip_hdr": 2923,
      "msg": 2924,
      "pskb": 2925,
      "pm_runtime_get_sync": 2926,
      "##_wait_event": 2927,
      "##e32": 2928,
      "##_pk": 2929,
      "##face": 2930,
      "##phy_reg": 2931,
      "trace_event_buffer_commit": 2932,
      "cfg80211": 2933,
      "##_search": 2934,
      "##_suspend": 2935,
      "_raw_write_unlock": 2936,
      "perf_fetch": 2937,
      "##_caller_regs": 2938,
      "perf_fetch_caller_regs": 2939,
      "##ched_": 2940,
      "##_item": 2941,
      "i915_request_": 2942,
      "##s_write": 2943,
      "##atter": 2944,
      "i2c_smbus_": 2945,
      "##mmio": 2946,
      "##e_sock": 2947,
      "##fm": 2948,
      "##run_bpf": 2949,
      "perf_trace_run_bpf": 2950,
      "perf_trace_run_bpf_submit": 2951,
      "##_try": 2952,
      "buffer": 2953,
      "##request_": 2954,
      "##_recover": 2955,
      "##format": 2956,
      "##head_": 2957,
      "virtio": 2958,
      "##_drop": 2959,
      "drm_dev_dbg": 2960,
      "##initialize": 2961,
      "##xid": 2962,
      "__c": 2963,
      "b43_phy_mask": 2964,
      "init_wait_": 2965,
      "##stack": 2966,
      "##fir": 2967,
      "dst_": 2968,
      "prepare_to_wait_event": 2969,
      "##_R": 2970,
      "##ment": 2971,
      "##array": 2972,
      "##t_m": 2973,
      "##_network": 2974,
      "ath9k_hw": 2975,
      "##_m2m": 2976,
      "release_firmware": 2977,
      "##_locked": 2978,
      "##ition": 2979,
      "dma_map_single_attrs": 2980,
      "##_context": 2981,
      "teg": 2982,
      "tegra": 2983,
      "##_bitmap": 2984,
      "af": 2985,
      "clk_get_rate": 2986,
      "regulator_enable": 2987,
      "##_compatible": 2988,
      "##_session": 2989,
      "##t_to": 2990,
      "##lab": 2991,
      "##_multicast_": 2992,
      "##_db": 2993,
      "CI": 2994,
      "##_radio": 2995,
      "##_byte_data": 2996,
      "##ocol": 2997,
      "##otocol": 2998,
      "##900": 2999,
      "##isi": 3000,
      "##_vif": 3001,
      "##conf": 3002,
      "##_tunnel": 3003,
      "##gth": 3004,
      "##thca": 3005,
      "##class": 3006,
      "i2c_smbus_write_": 3007,
      "qla4": 3008,
      "##_bio": 3009,
      "##_and_coherent": 3010,
      "drm_atomic": 3011,
      "##_valu": 3012,
      "dump": 3013,
      "##d2": 3014,
      "##hip": 3015,
      "##doma": 3016,
      "##ie": 3017,
      "##_encoder": 3018,
      "cur": 3019,
      "memp": 3020,
      "##com": 3021,
      "map": 3022,
      "##e_can": 3023,
      "##_store": 3024,
      "mthca": 3025,
      "__r": 3026,
      "##chr": 3027,
      "##4i": 3028,
      "inter": 3029,
      "audit_": 3030,
      "##_queues": 3031,
      "##_get_pi": 3032,
      "##_supported": 3033,
      "init_wait_entry": 3034,
      "##34": 3035,
      "hlist_": 3036,
      "##_submit_urb": 3037,
      "##driver": 3038,
      "mei": 3039,
      "##_probe_": 3040,
      "reiser": 3041,
      "##ega": 3042,
      "vfree": 3043,
      "##nof": 3044,
      "v4l2_m2m": 3045,
      "##31": 3046,
      "complete": 3047,
      "##_query": 3048,
      "##_mcu": 3049,
      "rbsp": 3050,
      "drm_dp": 3051,
      "##_bridge_": 3052,
      "##version": 3053,
      "##command": 3054,
      "##ices": 3055,
      "##this_cpu": 3056,
      "##ink": 3057,
      "ip6": 3058,
      "SM": 3059,
      "##xl": 3060,
      "##_ah": 3061,
      "##acon": 3062,
      "lock_sock": 3063,
      "##_memory": 3064,
      "release_sock": 3065,
      "##mr": 3066,
      "##uid": 3067,
      "##_module_": 3068,
      "ia_css_": 3069,
      "ic": 3070,
      "##_raw": 3071,
      "##_mmu": 3072,
      "##anel": 3073,
      "i915_vma": 3074,
      "##e_page": 3075,
      "##connect": 3076,
      "##_last_": 3077,
      "devm_regulator_get": 3078,
      "ether_addr_copy": 3079,
      "i2c_get_clientdata": 3080,
      "capable": 3081,
      "tim": 3082,
      "##ell": 3083,
      "mutex_lock_interruptible_": 3084,
      "mutex_lock_interruptible_nested": 3085,
      "nla_nest_start": 3086,
      "nla_nest_start_": 3087,
      "##noflag": 3088,
      "nla_nest_start_noflag": 3089,
      "flow_rule_match_key": 3090,
      "instr": 3091,
      "##_preempt_check": 3092,
      "__this_cpu": 3093,
      "__this_cpu_preempt_check": 3094,
      "##_encode_": 3095,
      "##range_": 3096,
      "gb": 3097,
      "##_in_": 3098,
      "##exec": 3099,
      "rtnl_unlock": 3100,
      "finish_wait": 3101,
      "kobject_": 3102,
      "##compare": 3103,
      "##copy": 3104,
      "##_uart_": 3105,
      "IEEE80211": 3106,
      "##intf": 3107,
      "##_reset_control": 3108,
      "dsi": 3109,
      "usb_submit_urb": 3110,
      "##alc": 3111,
      "##ay": 3112,
      "pm_runtime_set_": 3113,
      "i2c_smbus_read_byte_data": 3114,
      "##abs_params": 3115,
      "mempool": 3116,
      "##e6": 3117,
      "##gmt_": 3118,
      "##2b": 3119,
      "trace_handle_": 3120,
      "##reset_": 3121,
      "trace_handle_return": 3122,
      "##_shash": 3123,
      "##_select_": 3124,
      "input_set_abs_params": 3125,
      "i2c_check": 3126,
      "##ISER": 3127,
      "REISER": 3128,
      "##eter": 3129,
      "##iochip": 3130,
      "##vi": 3131,
      "##_dig": 3132,
      "##_ent": 3133,
      "iput": 3134,
      "##_dbg_trace": 3135,
      "##_direc": 3136,
      "##rcm": 3137,
      "##msi": 3138,
      "ttm": 3139,
      "t4": 3140,
      "device_property_read_u32": 3141,
      "##assert_": 3142,
      "qla24xx_read_": 3143,
      "rem": 3144,
      "##ument_": 3145,
      "##owner": 3146,
      "##_begin": 3147,
      "_raw_read_lock": 3148,
      "##ence": 3149,
      "bfq": 3150,
      "##use": 3151,
      "##_rep": 3152,
      "##ysc": 3153,
      "##lobal": 3154,
      "ipv6_addr": 3155,
      "##tionality": 3156,
      "##sid": 3157,
      "##tag": 3158,
      "ql_dbg": 3159,
      "_raw_read_unlock": 3160,
      "pin": 3161,
      "##_domain": 3162,
      "##_popu": 3163,
      "spi_controller": 3164,
      "dpa": 3165,
      "##_domain_": 3166,
      "##55": 3167,
      "##_finish": 3168,
      "##_functionality": 3169,
      "##22": 3170,
      "##pack": 3171,
      "##_parse_p": 3172,
      "##conte": 3173,
      "create_": 3174,
      "##_file_": 3175,
      "##_frame": 3176,
      "dpaa2": 3177,
      "##_client_": 3178,
      "i2c_check_functionality": 3179,
      "##_es": 3180,
      "##_long": 3181,
      "instrument_": 3182,
      "##dsp": 3183,
      "##_over": 3184,
      "put_p": 3185,
      "pci_read_config_dword": 3186,
      "##sock": 3187,
      "##_blocks": 3188,
      "##capability": 3189,
      "##red": 3190,
      "##_validate_": 3191,
      "##freq": 3192,
      "##ner": 3193,
      "##nod": 3194,
      "##_load_": 3195,
      "trace_event_printf": 3196,
      "trace_raw_output_prep": 3197,
      "##test_bit": 3198,
      "##ename": 3199,
      "##hal": 3200,
      "##proc": 3201,
      "instrument_atomic": 3202,
      "##_rtc": 3203,
      "qla24xx_read_window": 3204,
      "##space": 3205,
      "##tab": 3206,
      "##_load": 3207,
      "##vr": 3208,
      "intel_uncore": 3209,
      "##_empty": 3210,
      "##level": 3211,
      "##_input_": 3212,
      "__kfifo": 3213,
      "del_timer_sync": 3214,
      "trace_event_get_offsets": 3215,
      "ktime_compare": 3216,
      "bpf_trace_": 3217,
      "ipv6_hdr": 3218,
      "##_ab": 3219,
      "bpf_trace_run": 3220,
      "##page_": 3221,
      "simple_": 3222,
      "##_close": 3223,
      "seq_puts": 3224,
      "##3c": 3225,
      "##bs_": 3226,
      "##Set": 3227,
      "##ical": 3228,
      "efi": 3229,
      "##e_get_": 3230,
      "##_frag": 3231,
      "##_log_dbg": 3232,
      "r600": 3233,
      "##cy": 3234,
      "##110": 3235,
      "##f_dbg": 3236,
      "request_firmware": 3237,
      "##_dete": 3238,
      "##pon": 3239,
      "mod_timer": 3240,
      "##_super": 3241,
      "##_mb": 3242,
      "##uct": 3243,
      "##ed_be": 3244,
      "crypto_skcipher": 3245,
      "dccp": 3246,
      "##lcpy": 3247,
      "strlcpy": 3248,
      "rv6": 3249,
      "s5": 3250,
      "wait_for_completion_timeout": 3251,
      "##_display": 3252,
      "size_add": 3253,
      "##_get_sub": 3254,
      "config": 3255,
      "fsc": 3256,
      "cancel_delayed_work_sync": 3257,
      "##cfg": 3258,
      "rpc": 3259,
      "readw": 3260,
      "##eight": 3261,
      "##_host": 3262,
      "alloc_workqueue": 3263,
      "down_read": 3264,
      "pnp": 3265,
      "##_tc": 3266,
      "op": 3267,
      "##_fc": 3268,
      "skb_tail": 3269,
      "##acl": 3270,
      "##_hcd": 3271,
      "fnic": 3272,
      "##ern": 3273,
      "##_field_": 3274,
      "devm_request_threaded_irq": 3275,
      "##42": 3276,
      "##_insert_": 3277,
      "##_total": 3278,
      "##46": 3279,
      "adv": 3280,
      "##cn": 3281,
      "##_log_dbg_enabled": 3282,
      "##_exit_": 3283,
      "rtnl_lock": 3284,
      "ocp_reg_write": 3285,
      "##arm": 3286,
      "##stant_": 3287,
      "##_sleep": 3288,
      "##u64": 3289,
      "devm_reset_control": 3290,
      "folio_test_": 3291,
      "##sp1": 3292,
      "##_access": 3293,
      "##cma": 3294,
      "##_leaf": 3295,
      "##_pitch": 3296,
      "v4l2_ctrl_handler": 3297,
      "nla_put": 3298,
      "stv0": 3299,
      "##2p": 3300,
      "##ead": 3301,
      "nt": 3302,
      "ap": 3303,
      "##unit_": 3304,
      "##filter": 3305,
      "ef": 3306,
      "##_cmp": 3307,
      "regulator_bulk": 3308,
      "##_test": 3309,
      "##_write_word": 3310,
      "##_mqs": 3311,
      "uart_": 3312,
      "##d_get": 3313,
      "##quot_": 3314,
      "##power": 3315,
      "##date_p": 3316,
      "##_add_action": 3317,
      "_raw_spin_unlock": 3318,
      "##red_": 3319,
      "dma_set_mask_and_coherent": 3320,
      "##e_cansleep": 3321,
      "ac": 3322,
      "__brcm": 3323,
      "mark": 3324,
      "rtl_write_byte": 3325,
      "snd_hda": 3326,
      "make_": 3327,
      "ipw": 3328,
      "strscpy": 3329,
      "##_irqrestore": 3330,
      "kbas": 3331,
      "netdev_info": 3332,
      "kbasename": 3333,
      "tg3": 3334,
      "lookup": 3335,
      "div": 3336,
      "media": 3337,
      "##ST": 3338,
      "##_is_n": 3339,
      "schedule_work": 3340,
      "##_fb": 3341,
      "##root": 3342,
      "##_usbdev": 3343,
      "##intr": 3344,
      "##_verify": 3345,
      "##_dm": 3346,
      "##value_cansleep": 3347,
      "##_rf": 3348,
      "##_metadata": 3349,
      "pci_request_region": 3350,
      "##712": 3351,
      "##ound": 3352,
      "serial": 3353,
      "instrument_atomic_write": 3354,
      "u64_stats_": 3355,
      "cx24": 3356,
      "##_min_pitch": 3357,
      "drm_format_info_min_pitch": 3358,
      "##resume": 3359,
      "kmalloc_array": 3360,
      "##t2": 3361,
      "##byte_data": 3362,
      "debugfs_create_file": 3363,
      "fb": 3364,
      "msm": 3365,
      "dsa": 3366,
      "btrfs_item": 3367,
      "##vsi": 3368,
      "##stant_test_bit": 3369,
      "hc": 3370,
      "hfspl": 3371,
      "##_sdio": 3372,
      "##clear": 3373,
      "devm_add_action": 3374,
      "##_idx": 3375,
      "##gra": 3376,
      "##_work_sync": 3377,
      "##_bus_": 3378,
      "##_rw": 3379,
      "##lice_": 3380,
      "##_hdmi": 3381,
      "##bit_": 3382,
      "##_smc": 3383,
      "nla_len": 3384,
      "ath5k": 3385,
      "i2c_smbus_write_byte_data": 3386,
      "##_exp": 3387,
      "##e_stop": 3388,
      "warn": 3389,
      "shost_": 3390,
      "mac": 3391,
      "##over": 3392,
      "##_build_": 3393,
      "##ocfs2": 3394,
      "##ress_": 3395,
      "##13": 3396,
      "##_set_s": 3397,
      "##clu": 3398,
      "b43_phy_write": 3399,
      "##imm": 3400,
      "rock": 3401,
      "__mlog": 3402,
      "__mlog_printk": 3403,
      "##_get_data": 3404,
      "pm_runtime_disable": 3405,
      "##point": 3406,
      "##chron": 3407,
      "security": 3408,
      "##_has_room": 3409,
      "##mat": 3410,
      "input_report_": 3411,
      "##is_compatible": 3412,
      "##acquire": 3413,
      "##_attrs": 3414,
      "##sta": 3415,
      "constant_test_bit": 3416,
      "##us_irq": 3417,
      "smsc": 3418,
      "##_full": 3419,
      "##ection": 3420,
      "##net32": 3421,
      "current_": 3422,
      "val": 3423,
      "##kernel": 3424,
      "of_match": 3425,
      "##_sd": 3426,
      "##_bb": 3427,
      "##mode_": 3428,
      "##resume_": 3429,
      "interface_": 3430,
      "reg_w": 3431,
      "##_pos": 3432,
      "interface_to": 3433,
      "##skb": 3434,
      "##mem_page_": 3435,
      "interface_to_usbdev": 3436,
      "vmc": 3437,
      "##_mbox": 3438,
      "usb_endpoint_": 3439,
      "##begin": 3440,
      "##_firmware": 3441,
      "mvpp": 3442,
      "##default_": 3443,
      "mv88": 3444,
      "get_unaligned_le": 3445,
      "sw": 3446,
      "##with": 3447,
      "##ready": 3448,
      "cancel_work_sync": 3449,
      "vega": 3450,
      "from": 3451,
      "dev_driver": 3452,
      "dev_driver_string": 3453,
      "##ild_": 3454,
      "lowmem_page_": 3455,
      "lowmem_page_address": 3456,
      "IEEE80211_SKB": 3457,
      "##reser": 3458,
      "##_av": 3459,
      "shost_priv": 3460,
      "##ound_": 3461,
      "##intfdata": 3462,
      "##_commit_": 3463,
      "##96": 3464,
      "##_xattr": 3465,
      "##_reserve_": 3466,
      "##recated": 3467,
      "##_modeset_": 3468,
      "snd_soc_dai": 3469,
      "b43_phy_maskset": 3470,
      "##pin": 3471,
      "##_capable": 3472,
      "efc": 3473,
      "mv88e6": 3474,
      "##ratelimit": 3475,
      "atomisp": 3476,
      "##real": 3477,
      "##oute_": 3478,
      "xgen": 3479,
      "##91": 3480,
      "##root_": 3481,
      "##cache": 3482,
      "##_extent_": 3483,
      "am": 3484,
      "ceph_has_room": 3485,
      "##_make_": 3486,
      "##_rcv": 3487,
      "net_ratelimit": 3488,
      "##egas": 3489,
      "nlmsg_data": 3490,
      "mm": 3491,
      "v4l2_get_sub": 3492,
      "gpu": 3493,
      "##700": 3494,
      "qat_": 3495,
      "##adget_": 3496,
      "##_com": 3497,
      "##auth": 3498,
      "ntfs_": 3499,
      "##_vir": 3500,
      "##_spec": 3501,
      "find_next_": 3502,
      "##rate_": 3503,
      "o2": 3504,
      "##_bog": 3505,
      "##cg": 3506,
      "btrfs_set_": 3507,
      "skl": 3508,
      "##_nr": 3509,
      "##_kfree_skb": 3510,
      "##deprecated": 3511,
      "amdgpu_bo": 3512,
      "##_modify": 3513,
      "bcma": 3514,
      "##_or_reset": 3515,
      "##eek": 3516,
      "##arly": 3517,
      "warn_bog": 3518,
      "##us_irq_restore": 3519,
      "warn_bogus_irq_restore": 3520,
      "##_pf": 3521,
      "da": 3522,
      "devm_iio_device_alloc": 3523,
      "free_netdev": 3524,
      "##_process_": 3525,
      "##write_reg": 3526,
      "##_write8": 3527,
      "hisi": 3528,
      "dev_kfree_skb": 3529,
      "of_find_": 3530,
      "##_change_": 3531,
      "##volt": 3532,
      "gpiochip": 3533,
      "svm": 3534,
      "##c4": 3535,
      "##module": 3536,
      "##_phys_": 3537,
      "##95": 3538,
      "##adapter": 3539,
      "##_txq": 3540,
      "##_cluster": 3541,
      "megas": 3542,
      "mpt3": 3543,
      "##pg": 3544,
      "devm_add_action_or_reset": 3545,
      "mt7": 3546,
      "##async": 3547,
      "wl1271": 3548,
      "pci_release_region": 3549,
      "##7xx": 3550,
      "##activ": 3551,
      "##_tag": 3552,
      "r100_mm_rreg": 3553,
      "cm": 3554,
      "regcach": 3555,
      "##first_": 3556,
      "v4l2_get_subdevdata": 3557,
      "##_gra": 3558,
      "##drop": 3559,
      "##ota": 3560,
      "##_extack": 3561,
      "##iled": 3562,
      "##_set_bits": 3563,
      "of_device_is_compatible": 3564,
      "##_trc": 3565,
      "##tun": 3566,
      "##rivate": 3567,
      "rtnl_is_locked": 3568,
      "##_rs": 3569,
      "##_is_valid": 3570,
      "##ber": 3571,
      "fre": 3572,
      "##_cpup": 3573,
      "aa": 3574,
      "##nd_": 3575,
      "##rap": 3576,
      "##dev_mqs": 3577,
      "##rypt_": 3578,
      "##_supply": 3579,
      "##_disk": 3580,
      "##AN": 3581,
      "##odule_": 3582,
      "put_device": 3583,
      "##_ioctl": 3584,
      "skcipher": 3585,
      "__bfa": 3586,
      "##_csum": 3587,
      "##allocate_device": 3588,
      "skb_network": 3589,
      "##_present": 3590,
      "##_ec": 3591,
      "##_CB": 3592,
      "##vir": 3593,
      "igt_": 3594,
      "can": 3595,
      "##2cap": 3596,
      "##62": 3597,
      "mvpp2": 3598,
      "##mot": 3599,
      "mlxsw_reg": 3600,
      "reiserfs_": 3601,
      "__get_": 3602,
      "##lank": 3603,
      "kmemdup": 3604,
      "##_pl": 3605,
      "##vert_": 3606,
      "##ath11k": 3607,
      "##_to_cpup": 3608,
      "##tool": 3609,
      "##_8": 3610,
      "##_64": 3611,
      "##_rd32": 3612,
      "nla_total": 3613,
      "##id_eq": 3614,
      "##_busy": 3615,
      "##_ether": 3616,
      "##_last_busy": 3617,
      "pci_request_regions": 3618,
      "##_kill": 3619,
      "##serial": 3620,
      "##otg": 3621,
      "##mon": 3622,
      "##rio": 3623,
      "##_prep": 3624,
      "__bfa_trc": 3625,
      "of_parse_p": 3626,
      "##query": 3627,
      "ubifs": 3628,
      "percpu": 3629,
      "##_format": 3630,
      "##clusi": 3631,
      "##_D": 3632,
      "dispc": 3633,
      "rdev": 3634,
      "__outw": 3635,
      "##_nic": 3636,
      "nla_put_net32": 3637,
      "##_dq": 3638,
      "##_scsi": 3639,
      "atomic_long": 3640,
      "##77": 3641,
      "##_mdio": 3642,
      "##_read16": 3643,
      "##_read_lock": 3644,
      "destroy_workqueue": 3645,
      "##51": 3646,
      "kref_put": 3647,
      "##_setting": 3648,
      "##_cgroup": 3649,
      "queue_work": 3650,
      "dwc3": 3651,
      "##e_create": 3652,
      "u64_stats_update_": 3653,
      "REISERFS_SB": 3654,
      "power": 3655,
      "t3": 3656,
      "##sup": 3657,
      "##120": 3658,
      "##interface": 3659,
      "##ance_": 3660,
      "##_device_unregister": 3661,
      "##idle": 3662,
      "ceph_decode_": 3663,
      "crypto_shash": 3664,
      "hv": 3665,
      "##_int_": 3666,
      "parse_": 3667,
      "bdev": 3668,
      "##type_": 3669,
      "il_get_": 3670,
      "JFS_I": 3671,
      "JFS_IP": 3672,
      "xlog": 3673,
      "##_active": 3674,
      "rv6xx": 3675,
      "##ODE": 3676,
      "##df": 3677,
      "##_2": 3678,
      "##_report": 3679,
      "cod": 3680,
      "skb_reset_": 3681,
      "snd_ctl": 3682,
      "##cancel": 3683,
      "##ET_": 3684,
      "##Page": 3685,
      "cifs_": 3686,
      "##ain_": 3687,
      "decode_": 3688,
      "##ts_": 3689,
      "##_rfc": 3690,
      "dev_kfree_skb_any": 3691,
      "put_page": 3692,
      "##zon": 3693,
      "##apic": 3694,
      "##_complete_": 3695,
      "##non": 3696,
      "pch": 3697,
      "##_wq": 3698,
      "##_entity": 3699,
      "crypto_aead_": 3700,
      "##_buff": 3701,
      "##_signal": 3702,
      "imx": 3703,
      "##_int": 3704,
      "is_valid_": 3705,
      "##85": 3706,
      "##ntry": 3707,
      "##assoc": 3708,
      "##reen": 3709,
      "##_vf": 3710,
      "dmaengin": 3711,
      "##et6": 3712,
      "ahc": 3713,
      "##_cmd_s": 3714,
      "##dentry": 3715,
      "pc": 3716,
      "##_peer": 3717,
      "##_share": 3718,
      "##fset_": 3719,
      "##ef": 3720,
      "##_schedule_": 3721,
      "##_rule": 3722,
      "##estamp": 3723,
      "__er": 3724,
      "_get_": 3725,
      "##led": 3726,
      "##bd2": 3727,
      "##_slave_": 3728,
      "drbd_": 3729,
      "cpumask_next": 3730,
      "##_ic": 3731,
      "net_generic": 3732,
      "##frag": 3733,
      "xdp": 3734,
      "l2cap": 3735,
      "##ies": 3736,
      "ks": 3737,
      "##_acquire": 3738,
      "sysfs_": 3739,
      "__ntfs_": 3740,
      "##limit": 3741,
      "kas": 3742,
      "##_ag": 3743,
      "gfx_": 3744,
      "##hermal": 3745,
      "##_etherdev_mqs": 3746,
      "##field": 3747,
      "##scanf": 3748,
      "mutex_destroy": 3749,
      "##timeout_": 3750,
      "##my": 3751,
      "btf_type_": 3752,
      "sscanf": 3753,
      "coda": 3754,
      "tcp_sk": 3755,
      "netif_carrier_off": 3756,
      "##_read_byte": 3757,
      "__iwl_dbg": 3758,
      "##dit": 3759,
      "##ord": 3760,
      "drm_modeset_": 3761,
      "__builtin_memcpy": 3762,
      "##e_property": 3763,
      "##_os": 3764,
      "##_get_devdata": 3765,
      "##_slot": 3766,
      "##ba": 3767,
      "##_mul": 3768,
      "tx": 3769,
      "spi_controller_get_devdata": 3770,
      "##ures": 3771,
      "##_codec": 3772,
      "##_ack": 3773,
      "il_get_debug_level": 3774,
      "##nfs": 3775,
      "##_nf": 3776,
      "##detach": 3777,
      "##ns_": 3778,
      "##domain": 3779,
      "pci_name": 3780,
      "##ds_": 3781,
      "netif_device_": 3782,
      "##_issue_": 3783,
      "pci_release_regions": 3784,
      "##l3": 3785,
      "syscon": 3786,
      "##edr": 3787,
      "##_var": 3788,
      "##_may_pull": 3789,
      "##change": 3790,
      "##track": 3791,
      "usb_set_": 3792,
      "csi": 3793,
      "##_version": 3794,
      "kunit_": 3795,
      "##Up": 3796,
      "##_get_v": 3797,
      "wil_dbg_trace": 3798,
      "##uv": 3799,
      "nla_total_size": 3800,
      "##ii": 3801,
      "##ox": 3802,
      "##context": 3803,
      "cs": 3804,
      "##nd": 3805,
      "##_policy": 3806,
      "__er32": 3807,
      "snd_em": 3808,
      "##_dequeue": 3809,
      "##move": 3810,
      "put_unalign": 3811,
      "ioread8": 3812,
      "hfi1": 3813,
      "##_vol": 3814,
      "##param": 3815,
      "pm_runtime_mark": 3816,
      "pm_runtime_mark_last_busy": 3817,
      "ef4": 3818,
      "##hashtable_": 3819,
      "do_trace_": 3820,
      "nla_parse_": 3821,
      "##_acpi": 3822,
      "file": 3823,
      "##_rate": 3824,
      "##netlink_extack": 3825,
      "##ache": 3826,
      "##_queu": 3827,
      "##_dc": 3828,
      "generic": 3829,
      "skb_push": 3830,
      "do_trace_netlink_extack": 3831,
      "##41": 3832,
      "OC": 3833,
      "##inline_": 3834,
      "amdgpu_ring": 3835,
      "##_msi": 3836,
      "crypto_ahash": 3837,
      "ksmb": 3838,
      "##area": 3839,
      "##_ti": 3840,
      "##peg": 3841,
      "dquot_": 3842,
      "##_pcm": 3843,
      "##_clr": 3844,
      "##csk": 3845,
      "atomic_de": 3846,
      "##lect": 3847,
      "##m_get_": 3848,
      "dma_fence_": 3849,
      "watchdog": 3850,
      "##_send_cmd": 3851,
      "##interrupts": 3852,
      "##_esw": 3853,
      "##ung": 3854,
      "iowrite8": 3855,
      "##ge_p": 3856,
      "_t": 3857,
      "##lem": 3858,
      "bnx2x_": 3859,
      "##access": 3860,
      "##_stop_queue": 3861,
      "drm_dev": 3862,
      "kthread": 3863,
      "##uid_": 3864,
      "##xattr": 3865,
      "snd_soc_component_write": 3866,
      "intel_engin": 3867,
      "pci_read_config_word": 3868,
      "##adap": 3869,
      "##lib": 3870,
      "##disable_": 3871,
      "##plug": 3872,
      "inet_sk": 3873,
      "hl": 3874,
      "rtl92": 3875,
      "hcd_to": 3876,
      "##_feature": 3877,
      "##ration": 3878,
      "##_cache": 3879,
      "gfx_v": 3880,
      "##ture": 3881,
      "##_schedule": 3882,
      "##_rd_": 3883,
      "drm_connector": 3884,
      "##_timing": 3885,
      "##head_init": 3886,
      "bch": 3887,
      "##ams": 3888,
      "pm_runtime_put_autosuspend": 3889,
      "##chronize_": 3890,
      "udp": 3891,
      "##operation": 3892,
      "qlge_": 3893,
      "##_status_": 3894,
      "mv88e6xxx": 3895,
      "##_card_": 3896,
      "##_nor": 3897,
      "atomic_dec_and_test": 3898,
      "tom": 3899,
      "##oyo": 3900,
      "##_cmd_p": 3901,
      "inet_csk": 3902,
      "tomoyo": 3903,
      "fib": 3904,
      "rhashtable_": 3905,
      "##rev": 3906,
      "##e_set_": 3907,
      "netdev_warn": 3908,
      "##_set_power": 3909,
      "iv": 3910,
      "##_emit": 3911,
      "intel_p": 3912,
      "##_real": 3913,
      "OCFS2_I": 3914,
      "gpu_write": 3915,
      "##assert": 3916,
      "##_dentry": 3917,
      "##_action": 3918,
      "##_atom": 3919,
      "cgroup": 3920,
      "##_alg": 3921,
      "##resources": 3922,
      "hand": 3923,
      "pskb_may_pull": 3924,
      "##rr": 3925,
      "##isten": 3926,
      "be": 3927,
      "lp": 3928,
      "##_fh": 3929,
      "##_tfm": 3930,
      "##ource_byname": 3931,
      "platform_get_resource_byname": 3932,
      "##_handle": 3933,
      "##options": 3934,
      "ath10k_wmi": 3935,
      "##opt": 3936,
      "##_csr": 3937,
      "##termin": 3938,
      "##eatures": 3939,
      "##rdev": 3940,
      "##uncate_": 3941,
      "iov_iter_count": 3942,
      "##_chain": 3943,
      "nvbio": 3944,
      "##_inode_dirty": 3945,
      "##ual": 3946,
      "rtl81": 3947,
      "gpiod_set_value_cansleep": 3948,
      "##_tlv": 3949,
      "vhost_": 3950,
      "##_client": 3951,
      "##path": 3952,
      "##status_": 3953,
      "##and_get": 3954,
      "##read_reg": 3955,
      "##_drvdata": 3956,
      "##es_to": 3957,
      "intel_context_": 3958,
      "rdma_ah": 3959,
      "po": 3960,
      "##_low": 3961,
      "tda": 3962,
      "##_arg": 3963,
      "##_protocol": 3964,
      "##8723": 3965,
      "##_bro": 3966,
      "btrfs_alloc": 3967,
      "##_recei": 3968,
      "##_beacon": 3969,
      "ia_css_debug": 3970,
      "##active_": 3971,
      "##_W": 3972,
      "iommu": 3973,
      "##tera": 3974,
      "##_mapping": 3975,
      "##_allocate_": 3976,
      "##84": 3977,
      "iowrite16": 3978,
      "##_md": 3979,
      "##_mr": 3980,
      "##Uptodate": 3981,
      "##dev_to": 3982,
      "video_drvdata": 3983,
      "from_k": 3984,
      "module_": 3985,
      "##_write_register": 3986,
      "__brcmf_dbg": 3987,
      "lin": 3988,
      "vga_w": 3989,
      "##_class": 3990,
      "##_count_": 3991,
      "remove_": 3992,
      "hin": 3993,
      "_rtl92": 3994,
      "##clusive": 3995,
      "alloc_etherdev_mqs": 3996,
      "##_hold": 3997,
      "##os_": 3998,
      "##_nl": 3999,
      "##_scr": 4000,
      "##01": 4001,
      "pvr": 4002,
      "##vice_": 4003,
      "##fore": 4004,
      "##_hd": 4005,
      "pm_runtime_resume_": 4006,
      "pm_runtime_resume_and_get": 4007,
      "##_clean": 4008,
      "##_instance": 4009,
      "aq": 4010,
      "send_": 4011,
      "pvr2": 4012,
      "##2r": 4013,
      "qat_hal": 4014,
      "##ummy": 4015,
      "##mess": 4016,
      "rxrpc": 4017,
      "ida": 4018,
      "pci_read_config_byte": 4019,
      "F2FS_I_SB": 4020,
      "pinctrl": 4021,
      "xenbus": 4022,
      "##complete": 4023,
      "##_target": 4024,
      "##_control_msg": 4025,
      "IEEE80211_SKB_CB": 4026,
      "##ia": 4027,
      "of_parse_phandle": 4028,
      "##tt": 4029,
      "##hex": 4030,
      "##_set_rate": 4031,
      "##_T": 4032,
      "should_": 4033,
      "efx_": 4034,
      "##remap": 4035,
      "##rs": 4036,
      "##_trans_": 4037,
      "##_value": 4038,
      "svc": 4039,
      "##_pg": 4040,
      "reinit_": 4041,
      "##ception": 4042,
      "##_read_word": 4043,
      "##_enable_device": 4044,
      "nvmet_": 4045,
      "##fetch": 4046,
      "vpu": 4047,
      "##afe": 4048,
      "##_readreg": 4049,
      "regulator_disable": 4050,
      "ether_addr_equal": 4051,
      "pcm": 4052,
      "##_buffers": 4053,
      "fwnod": 4054,
      "##vif": 4055,
      "##_glock": 4056,
      "##_xmit_": 4057,
      "hinic": 4058,
      "##_man": 4059,
      "##uge_p": 4060,
      "##_dst": 4061,
      "##xfer": 4062,
      "##_message_": 4063,
      "fwnode_property": 4064,
      "##56": 4065,
      "##_swap": 4066,
      "##adow": 4067,
      "##_sf": 4068,
      "skb_headlen": 4069,
      "reinit_completion": 4070,
      "__request_region": 4071,
      "is_acpi": 4072,
      "vmx": 4073,
      "xgb": 4074,
      "dma_pool": 4075,
      "##yte": 4076,
      "dma_unmap_single_attrs": 4077,
      "##par": 4078,
      "##ipe_": 4079,
      "num": 4080,
      "rmi": 4081,
      "##enter": 4082,
      "##_tw": 4083,
      "unlock_page": 4084,
      "nla_nest_end": 4085,
      "xgene_": 4086,
      "intel_de_read": 4087,
      "##oib": 4088,
      "ipoib": 4089,
      "filemap": 4090,
      "##d28": 4091,
      "##_xfer": 4092,
      "##iled_": 4093,
      "ip_vs": 4094,
      "##_eeprom": 4095,
      "##_bulk_get": 4096,
      "##_dtrace": 4097,
      "##x5": 4098,
      "##_tcon": 4099,
      "to_mdev": 4100,
      "tpm": 4101,
      "##_moun": 4102,
      "cdns": 4103,
      "core": 4104,
      "__builtin_va": 4105,
      "##outb": 4106,
      "##_register_device": 4107,
      "snd_sof": 4108,
      "##ke_up": 4109,
      "##_um": 4110,
      "##_phys_addr": 4111,
      "##_app": 4112,
      "##_gpu": 4113,
      "ivtv": 4114,
      "##_buck": 4115,
      "##_ops": 4116,
      "dev_set_": 4117,
      "igc": 4118,
      "##_acl": 4119,
      "preempt_count_add": 4120,
      "##_era": 4121,
      "##flash": 4122,
      "schedule_delayed_work": 4123,
      "##_request_module": 4124,
      "cxd28": 4125,
      "##cod": 4126,
      "fwnode_": 4127,
      "##ronten": 4128,
      "##res_": 4129,
      "usb_control_msg": 4130,
      "_i": 4131,
      "##xy": 4132,
      "jiffi": 4133,
      "##_packet": 4134,
      "_stack": 4135,
      "##sole_": 4136,
      "##_audio": 4137,
      "##_first": 4138,
      "##s_write_": 4139,
      "##extent": 4140,
      "handle_": 4141,
      "local_bh": 4142,
      "ver": 4143,
      "dbg": 4144,
      "__request_module": 4145,
      "append_": 4146,
      "kstrdup": 4147,
      "snd_hdac": 4148,
      "get_unaligned_be": 4149,
      "##bc": 4150,
      "cxgb4": 4151,
      "srcu": 4152,
      "skb_tail_pointer": 4153,
      "regmap_bulk": 4154,
      "##frame": 4155,
      "##ffs2": 4156,
      "##arg": 4157,
      "params_rate": 4158,
      "##_intel": 4159,
      "##_gt": 4160,
      "xfs_trans_": 4161,
      "##_parse": 4162,
      "hpi": 4163,
      "##_refcount_": 4164,
      "##full": 4165,
      "##release_": 4166,
      "qcom": 4167,
      "##ino": 4168,
      "lm": 4169,
      "##cas": 4170,
      "##_get_b": 4171,
      "nla_put_u64": 4172,
      "##33": 4173,
      "##ary": 4174,
      "##_exec": 4175,
      "##xi": 4176,
      "##ved": 4177,
      "inode_unlock": 4178,
      "##e_sh": 4179,
      "##_interrupt": 4180,
      "__dma": 4181,
      "##verbs_": 4182,
      "##e_cache_": 4183,
      "##_read_unlock": 4184,
      "iscsit_": 4185,
      "##used": 4186,
      "##rtimer": 4187,
      "##onic": 4188,
      "##_video": 4189,
      "##_system": 4190,
      "##tree": 4191,
      "vf": 4192,
      "ath5k_hw": 4193,
      "##radio": 4194,
      "##_change": 4195,
      "find_next_bit": 4196,
      "fuse_": 4197,
      "jiffies_to": 4198,
      "##send_": 4199,
      "pm_runtime_put": 4200,
      "siw": 4201,
      "##_mcdi": 4202,
      "wlcore": 4203,
      "##800": 4204,
      "##54": 4205,
      "##_assert": 4206,
      "mpt3sas": 4207,
      "##memory": 4208,
      "is_valid_ether_addr": 4209,
      "trace_ath10k": 4210,
      "##pt_": 4211,
      "sysfs_create_": 4212,
      "##avf": 4213,
      "ia_css_debug_dtrace": 4214,
      "__ext4_journal": 4215,
      "##ps_": 4216,
      "##_hw_addr": 4217,
      "##_to_hcd": 4218,
      "scsi_host_": 4219,
      "devm_gpiod_get": 4220,
      "_bin": 4221,
      "mlx5_esw": 4222,
      "##rain": 4223,
      "##mis": 4224,
      "##none": 4225,
      "amdgpu_sriov": 4226,
      "kthread_": 4227,
      "preempt_count_sub": 4228,
      "rsi": 4229,
      "##writel": 4230,
      "ra": 4231,
      "##_83": 4232,
      "##_fp": 4233,
      "dput": 4234,
      "mes": 4235,
      "atl": 4236,
      "##fini": 4237,
      "##system": 4238,
      "inet6": 4239,
      "uv": 4240,
      "##nested_": 4241,
      "##_claim": 4242,
      "##ync_": 4243,
      "hfsplus": 4244,
      "##itive": 4245,
      "sysfs": 4246,
      "btrfs_header": 4247,
      "queue_delayed_work": 4248,
      "##e_per": 4249,
      "btc": 4250,
      "##ta": 4251,
      "bt": 4252,
      "##label": 4253,
      "##_has_feature": 4254,
      "##ists": 4255,
      "##_cmn": 4256,
      "##_bit_": 4257,
      "##encoder": 4258,
      "readq": 4259,
      "##_root": 4260,
      "__skb_queue_": 4261,
      "##riptor": 4262,
      "##amsung": 4263,
      "##d_phy": 4264,
      "##ass_": 4265,
      "##iocb": 4266,
      "dmi": 4267,
      "##_char": 4268,
      "##probe_": 4269,
      "rtw_hal": 4270,
      "##_clk_hw": 4271,
      "##switch": 4272,
      "##sure": 4273,
      "##dimm": 4274,
      "##_sg_attrs": 4275,
      "iavf": 4276,
      "##rfreg": 4277,
      "##lace_": 4278,
      "jffs2": 4279,
      "##_peek": 4280,
      "##_send_msg": 4281,
      "##_32": 4282,
      "##_temp": 4283,
      "__v": 4284,
      "##prt_": 4285,
      "##_broadc": 4286,
      "b43_phy_read": 4287,
      "##lave": 4288,
      "##counter": 4289,
      "##_nam": 4290,
      "__bpf": 4291,
      "cpsw": 4292,
      "platform_get_irq_b": 4293,
      "rf": 4294,
      "synchronize_": 4295,
      "##ponse": 4296,
      "snd_emu": 4297,
      "##cia": 4298,
      "__builtin_return": 4299,
      "__builtin_return_address": 4300,
      "##dl": 4301,
      "##hu": 4302,
      "##qs": 4303,
      "##may": 4304,
      "__release_region": 4305,
      "rcu_read_unlock_bh": 4306,
      "octe": 4307,
      "gfs2_glock": 4308,
      "__phys_addr": 4309,
      "kernel": 4310,
      "##qm": 4311,
      "trace_ocfs2": 4312,
      "##_gp": 4313,
      "##_phys": 4314,
      "##_range_": 4315,
      "current_time": 4316,
      "skcipher_request_": 4317,
      "inc": 4318,
      "##input_": 4319,
      "skb_copy": 4320,
      "##_bmap": 4321,
      "##sf": 4322,
      "##helper": 4323,
      "nla_nest_cancel": 4324,
      "##ken": 4325,
      "##asser": 4326,
      "nft_set_": 4327,
      "##_debugfs_": 4328,
      "##_ps": 4329,
      "##reak": 4330,
      "##cond_": 4331,
      "##_writeb": 4332,
      "list_is_": 4333,
      "mx": 4334,
      "##_napi": 4335,
      "pcim_iomap": 4336,
      "power_supply": 4337,
      "##ix_": 4338,
      "_m": 4339,
      "##internal": 4340,
      "##common": 4341,
      "rcar": 4342,
      "fm": 4343,
      "##_get_irq": 4344,
      "reset_control_assert": 4345,
      "##failed": 4346,
      "##_multi": 4347,
      "##ht_": 4348,
      "##lot_": 4349,
      "##_failed_": 4350,
      "an": 4351,
      "rec": 4352,
      "blk_queue_": 4353,
      "##_adj": 4354,
      "##_name_": 4355,
      "##job": 4356,
      "ia_css": 4357,
      "crc": 4358,
      "csio": 4359,
      "##chunk": 4360,
      "##_by_p": 4361,
      "adf": 4362,
      "vmalloc": 4363,
      "SiS_Set": 4364,
      "##_mmap": 4365,
      "ovs_": 4366,
      "##_free_irq": 4367,
      "atomic_inc_return": 4368,
      "##mt_": 4369,
      "PageP": 4370,
      "##_O": 4371,
      "vlan": 4372,
      "##assertion": 4373,
      "##_dev_put": 4374,
      "##irk": 4375,
      "##154": 4376,
      "wake_up": 4377,
      "##_read_string": 4378,
      "##802154": 4379,
      "usb_get_serial": 4380,
      "hid": 4381,
      "##end_s": 4382,
      "##94": 4383,
      "##_pag": 4384,
      "ath11k_wmi": 4385,
      "rtl8xxxu_write32": 4386,
      "##_ul": 4387,
      "aead_": 4388,
      "##splice_": 4389,
      "skb_transport_": 4390,
      "##as_get_": 4391,
      "trace_xfs_": 4392,
      "netif_stop_queue": 4393,
      "##_crc": 4394,
      "##trfs_": 4395,
      "out": 4396,
      "rio": 4397,
      "##xp": 4398,
      "##blocks": 4399,
      "##dword": 4400,
      "devm_regulator_bulk_get": 4401,
      "__ath10k": 4402,
      "##sem": 4403,
      "__ew": 4404,
      "arch_local_irq_enable": 4405,
      "##_chunk": 4406,
      "##_rev": 4407,
      "##_rate_": 4408,
      "udf": 4409,
      "##_initialize": 4410,
      "ioread16": 4411,
      "##_flower": 4412,
      "samsung": 4413,
      "##c_link": 4414,
      "strchr": 4415,
      "##notifier": 4416,
      "##_parameter": 4417,
      "eth_hw_addr": 4418,
      "module_put": 4419,
      "kmap": 4420,
      "##vt_": 4421,
      "##_alloc_urb": 4422,
      "##do_failed_": 4423,
      "kunit_do_failed_": 4424,
      "kunit_do_failed_assertion": 4425,
      "sis": 4426,
      "##_tg": 4427,
      "ph": 4428,
      "##_sq": 4429,
      "xf_emit": 4430,
      "##d_soc": 4431,
      "pcim_enable_device": 4432,
      "ieee80211_get_": 4433,
      "md": 4434,
      "##PC": 4435,
      "##_const": 4436,
      "##_sensor": 4437,
      "gpiochip_get_data": 4438,
      "##665": 4439,
      "##recv": 4440,
      "##_two": 4441,
      "##_wake": 4442,
      "esas": 4443,
      "inode_lock": 4444,
      "esas2r": 4445,
      "##_struct": 4446,
      "validate_": 4447,
      "__ew32": 4448,
      "##suspend_": 4449,
      "##probe": 4450,
      "snd_soc_component_read": 4451,
      "##timing": 4452,
      "##e_sync": 4453,
      "disable_irq": 4454,
      "virt": 4455,
      "##_space": 4456,
      "##_freq": 4457,
      "##qla": 4458,
      "pci_write_config_dword": 4459,
      "##_support": 4460,
      "##channels": 4461,
      "is_multicast_": 4462,
      "__might_resched": 4463,
      "##spec": 4464,
      "kstrtoul": 4465,
      "##validate": 4466,
      "is_multicast_ether_addr": 4467,
      "##_gadget_": 4468,
      "intel_de_write": 4469,
      "##EY": 4470,
      "mmap": 4471,
      "##rw": 4472,
      "##_set_reg": 4473,
      "intel_dp": 4474,
      "##remove": 4475,
      "nested_": 4476,
      "##_packet_": 4477,
      "isp1": 4478,
      "##cond_resched": 4479,
      "_cond_resched": 4480,
      "##_uptodate": 4481,
      "__inw": 4482,
      "##_fib": 4483,
      "rtl_get_": 4484,
      "regcache_cache_": 4485,
      "rtl_read_byte": 4486,
      "##HY": 4487,
      "##73": 4488,
      "##_ww": 4489,
      "##_device_node": 4490,
      "nfc": 4491,
      "cec": 4492,
      "##743": 4493,
      "##_get_by_index": 4494,
      "##enet_": 4495,
      "_raw_spin_unlock_irqrestore": 4496,
      "##char": 4497,
      "is_acpi_device_node": 4498,
      "##pan": 4499,
      "s5p": 4500,
      "##alu": 4501,
      "##allow": 4502,
      "##_adv": 4503,
      "xfs_buf": 4504,
      "##_M": 4505,
      "##_auth": 4506,
      "be_": 4507,
      "##trib": 4508,
      "##IT": 4509,
      "arch_local_irq_disable": 4510,
      "##current_": 4511,
      "##_recovery": 4512,
      "__ath10k_dbg": 4513,
      "##_percpu": 4514,
      "cx18": 4515,
      "##_ed": 4516,
      "##x0": 4517,
      "##_disp": 4518,
      "##ale": 4519,
      "rockchip": 4520,
      "##_tree_": 4521,
      "_stack_save": 4522,
      "##tw": 4523,
      "##_serial": 4524,
      "##_trim": 4525,
      "##old_": 4526,
      "##_get_n": 4527,
      "trace_ath10k_log_dbg_enabled": 4528,
      "v4l2_fh": 4529,
      "##_dpm": 4530,
      "##_first_": 4531,
      "##_fs": 4532,
      "rbsp_bit": 4533,
      "sof": 4534,
      "sysfs_em": 4535,
      "##pur": 4536,
      "nl": 4537,
      "vmcs_write": 4538,
      "##dpm": 4539,
      "ssb": 4540,
      "##dits": 4541,
      "##network": 4542,
      "##_readb": 4543,
      "##sched": 4544,
      "##ng": 4545,
      "ipu": 4546,
      "##brid": 4547,
      "##_vb": 4548,
      "skb_queue_empty": 4549,
      "##_should_": 4550,
      "##SE": 4551,
      "##change_": 4552,
      "##ea": 4553,
      "##ond_": 4554,
      "snd_card_": 4555,
      "##ilog": 4556,
      "twl": 4557,
      "##_is_enabled": 4558,
      "devm_sn": 4559,
      "##c_ll": 4560,
      "##vo": 4561,
      "##lex": 4562,
      "ipv4": 4563,
      "##4iw": 4564,
      "##hold": 4565,
      "##_obj": 4566,
      "##pd_": 4567,
      "##pute_": 4568,
      "##nam": 4569,
      "##_route_": 4570,
      "usb_ep": 4571,
      "##ja": 4572,
      "##_ptp": 4573,
      "netif_carrier_ok": 4574,
      "huge_p": 4575,
      "devm_ioremap": 4576,
      "##_gro": 4577,
      "kern": 4578,
      "##8k": 4579,
      "##itor": 4580,
      "tb_switch": 4581,
      "##light_": 4582,
      "##_bnode_": 4583,
      "##metadata": 4584,
      "##onds": 4585,
      "##_checksum": 4586,
      "qdisc_priv": 4587,
      "##eren": 4588,
      "##tec": 4589,
      "##_hci": 4590,
      "##configure": 4591,
      "##_perio": 4592,
      "dce": 4593,
      "##eee80211_hw": 4594,
      "radeon_bo": 4595,
      "##_force_": 4596,
      "mcp": 4597,
      "##82xx": 4598,
      "##_avail": 4599,
      "soc": 4600,
      "##_lay": 4601,
      "##_speed": 4602,
      "##ight": 4603,
      "lpfc_sli4": 4604,
      "##walk": 4605,
      "##78xx": 4606,
      "##secs": 4607,
      "vc4": 4608,
      "##_netif": 4609,
      "##In": 4610,
      "##_connect": 4611,
      "##_get_device": 4612,
      "##_irq_v": 4613,
      "comedi_check_trigger_src": 4614,
      "##_module_get": 4615,
      "##_nfc": 4616,
      "##point_": 4617,
      "##_64bit": 4618,
      "ql_log": 4619,
      "##dx": 4620,
      "##_send_s": 4621,
      "octeon": 4622,
      "##_set_m": 4623,
      "##nested_deprecated": 4624,
      "vsc": 4625,
      "##crypt": 4626,
      "##_te": 4627,
      "##qi": 4628,
      "##inb": 4629,
      "##_mix": 4630,
      "bt_": 4631,
      "##assign": 4632,
      "##rt": 4633,
      "##3000": 4634,
      "##idx": 4635,
      "##_resv": 4636,
      "##_proto": 4637,
      "##2100": 4638,
      "##ended": 4639,
      "fim": 4640,
      "##roc": 4641,
      "##_la": 4642,
      "ep": 4643,
      "##idi": 4644,
      "##diob": 4645,
      "ksmbd_": 4646,
      "refcount_read": 4647,
      "##mtu": 4648,
      "##output_": 4649,
      "##_adc": 4650,
      "##ric": 4651,
      "##controller": 4652,
      "##_is_g": 4653,
      "rvt_get_": 4654,
      "##_dev_get": 4655,
      "##_vcpu": 4656,
      "exyn": 4657,
      "##nphy": 4658,
      "##ioctl": 4659,
      "##wait_for": 4660,
      "dwc2_writel": 4661,
      "dwc2_readl": 4662,
      "rtsx_pci": 4663,
      "wlc": 4664,
      "sdw": 4665,
      "sg_init_": 4666,
      "##restera": 4667,
      "##e_pm": 4668,
      "hrtimer": 4669,
      "##rame": 4670,
      "##_panel": 4671,
      "nla_put_string": 4672,
      "##_thread": 4673,
      "##_get_bits": 4674,
      "sky": 4675,
      "##_cmd_priv": 4676,
      "wlc_phy": 4677,
      "hns": 4678,
      "##_apply": 4679,
      "apic": 4680,
      "v9": 4681,
      "##_read8": 4682,
      "ionic": 4683,
      "##chg": 4684,
      "##_valid_": 4685,
      "par": 4686,
      "drv": 4687,
      "trace_xfs": 4688,
      "signal": 4689,
      "##inity": 4690,
      "##phan": 4691,
      "cl": 4692,
      "##kvm": 4693,
      "ahash": 4694,
      "le": 4695,
      "##L_": 4696,
      "##rypt": 4697,
      "nla_put_u64_64bit": 4698,
      "##dcb": 4699,
      "bq": 4700,
      "##inst": 4701,
      "##_tm": 4702,
      "REG": 4703,
      "##_dat": 4704,
      "timer": 4705,
      "##_deassert": 4706,
      "pcmcia": 4707,
      "##rot": 4708,
      "scsi_cmd_priv": 4709,
      "##193": 4710,
      "##insert_": 4711,
      "platform_get_irq_byname": 4712,
      "##be32": 4713,
      "of_clk": 4714,
      "##tep": 4715,
      "##_regmap_lookup": 4716,
      "##trfs": 4717,
      "##_shoul": 4718,
      "##_xdp": 4719,
      "##rd": 4720,
      "ds": 4721,
      "dev_pm": 4722,
      "##d_stop": 4723,
      "##dbg": 4724,
      "usb_alloc_urb": 4725,
      "KEY": 4726,
      "##_get_new": 4727,
      "refcount_inc": 4728,
      "##_regions": 4729,
      "##ative": 4730,
      "##_route": 4731,
      "le32": 4732,
      "##soc": 4733,
      "trace_smb3_exit_": 4734,
      "div_u64": 4735,
      "##dd": 4736,
      "##_flash": 4737,
      "enable_irq": 4738,
      "##_iommu": 4739,
      "ceph_inode": 4740,
      "fdt_": 4741,
      "##yc": 4742,
      "ZST": 4743,
      "pa": 4744,
      "##ther": 4745,
      "##_debugfs": 4746,
      "ZSTD": 4747,
      "##_callback": 4748,
      "gpio_is_valid": 4749,
      "##_bar": 4750,
      "sky2": 4751,
      "rds_": 4752,
      "##writeback": 4753,
      "##function": 4754,
      "_free_": 4755,
      "jbd2": 4756,
      "##_cow": 4757,
      "##_fil": 4758,
      "PagePrivate": 4759,
      "##1e_": 4760,
      "mb": 4761,
      "hci_conn": 4762,
      "##_upper": 4763,
      "clk_set_rate": 4764,
      "##vram": 4765,
      "nla_parse_nested_deprecated": 4766,
      "syscon_regmap_lookup": 4767,
      "##free_path": 4768,
      "trace_smb3_enter": 4769,
      "_get_xid": 4770,
      "##app": 4771,
      "skb_get_": 4772,
      "##moun": 4773,
      "##ho": 4774,
      "##_crypto": 4775,
      "##_invalidate_": 4776,
      "##register_device": 4777,
      "##iq": 4778,
      "##_report_": 4779,
      "strsep": 4780,
      "try_module_get": 4781,
      "user": 4782,
      "##_idle": 4783,
      "##def": 4784,
      "drm_mode_": 4785,
      "intel_crtc": 4786,
      "_free_xid": 4787,
      "usb_fill": 4788,
      "NI": 4789,
      "##okie": 4790,
      "##ERV": 4791,
      "##_rm": 4792,
      "SM_I": 4793,
      "amdgpu_ring_write": 4794,
      "qtn": 4795,
      "writeq": 4796,
      "asd_": 4797,
      "##d_reg": 4798,
      "##_mon": 4799,
      "_ieee80211_hw": 4800,
      "##d4": 4801,
      "##_is_s": 4802,
      "##display": 4803,
      "##210": 4804,
      "##ecmp": 4805,
      "##stamp": 4806,
      "##timestamp": 4807,
      "##e_stopped": 4808,
      "##ex_": 4809,
      "is_qla": 4810,
      "qtnf": 4811,
      "##_resol": 4812,
      "##older": 4813,
      "##offset_": 4814,
      "_mwifiex": 4815,
      "##child_": 4816,
      "##_sync_single_": 4817,
      "sock_flag": 4818,
      "##_initial": 4819,
      "alloc_skb": 4820,
      "##_snap": 4821,
      "##cept": 4822,
      "_mwifiex_dbg": 4823,
      "##casecmp": 4824,
      "##cc": 4825,
      "##_kernel": 4826,
      "mtd_": 4827,
      "reset_control_deassert": 4828,
      "##clo": 4829,
      "##ima": 4830,
      "##six": 4831,
      "av": 4832,
      "refcount_set": 4833,
      "ca": 4834,
      "ffs": 4835,
      "devm_regulator_get_optional": 4836,
      "__ntfs_debug": 4837,
      "fsl": 4838,
      "vxge_": 4839,
      "##_out_": 4840,
      "##_hard": 4841,
      "nla_get_u8": 4842,
      "regulator_bulk_enable": 4843,
      "##_line": 4844,
      "##_field": 4845,
      "##green": 4846,
      "btrfs_free_path": 4847,
      "##ive_": 4848,
      "##csr": 4849,
      "##is_locked": 4850,
      "kref_init": 4851,
      "##BA": 4852,
      "##_pipe_": 4853,
      "saa7": 4854,
      "##_umem": 4855,
      "##58": 4856,
      "##less": 4857,
      "##_get_reg": 4858,
      "cro": 4859,
      "call": 4860,
      "##_calib": 4861,
      "##hex_dump": 4862,
      "##_pwm": 4863,
      "rtc": 4864,
      "##ble_": 4865,
      "##ET": 4866,
      "##nm": 4867,
      "##nvm": 4868,
      "##space_": 4869,
      "##965": 4870,
      "##8821": 4871,
      "of_match_device": 4872,
      "##IN": 4873,
      "##_port_data": 4874,
      "drm_gem": 4875,
      "##global": 4876,
      "br_vlan": 4877,
      "##pages": 4878,
      "##_sram": 4879,
      "##_clear_bit": 4880,
      "mt7915": 4881,
      "no": 4882,
      "##14": 4883,
      "##_qos": 4884,
      "efx_mcdi": 4885,
      "##_unlink": 4886,
      "##iba": 4887,
      "disable_": 4888,
      "##tx_queue": 4889,
      "##attery": 4890,
      "uid_eq": 4891,
      "wr": 4892,
      "##tain": 4893,
      "##chain": 4894,
      "is_zero": 4895,
      "print_hex_dump": 4896,
      "##1105": 4897,
      "tlink": 4898,
      "lpfc_n": 4899,
      "##s_for": 4900,
      "nlmsg_new": 4901,
      "__ilog": 4902,
      "__ilog2": 4903,
      "ever": 4904,
      "##_activ": 4905,
      "evergreen": 4906,
      "##kt_": 4907,
      "##bitmap": 4908,
      "##vma": 4909,
      "##size_": 4910,
      "pt": 4911,
      "##_set_state": 4912,
      "##_base": 4913,
      "##afe_": 4914,
      "##direct": 4915,
      "qla4xxx": 4916,
      "##ator": 4917,
      "##exit_": 4918,
      "##_bread": 4919,
      "ipw2100": 4920,
      "##f2": 4921,
      "pci_write_config_byte": 4922,
      "##2bcd": 4923,
      "##ating": 4924,
      "##culate_": 4925,
      "of_get_next_": 4926,
      "cal": 4927,
      "##_caps": 4928,
      "sci": 4929,
      "##iz": 4930,
      "##_sectors": 4931,
      "##d_soc_register": 4932,
      "devm_snd_soc_register": 4933,
      "kmem_cache_free": 4934,
      "##_ibdev": 4935,
      "##_reply": 4936,
      "##_pow": 4937,
      "ipc": 4938,
      "##move_": 4939,
      "##verify": 4940,
      "mgmt_": 4941,
      "##_mux": 4942,
      "##_RE": 4943,
      "prestera": 4944,
      "##_gener": 4945,
      "input_report_key": 4946,
      "ti": 4947,
      "##_area": 4948,
      "##_mp": 4949,
      "##_fwnode": 4950,
      "##last_": 4951,
      "##inner": 4952,
      "xchk": 4953,
      "igb_rd32": 4954,
      "##verbs_attr": 4955,
      "##_by_phandle": 4956,
      "tlink_tcon": 4957,
      "##_sr": 4958,
      "##_iov": 4959,
      "media_entity": 4960,
      "signal_pending": 4961,
      "##espec": 4962,
      "##tial": 4963,
      "##_transport_": 4964,
      "list_splice_": 4965,
      "##_autop": 4966,
      "##endpoint": 4967,
      "enable_": 4968,
      "##_ether_addr": 4969,
      "##_need": 4970,
      "##quence": 4971,
      "device_get_match_data": 4972,
      "ahc_": 4973,
      "b43_radio": 4974,
      "##_not_": 4975,
      "list_is_head": 4976,
      "fd": 4977,
      "##_id_": 4978,
      "sym": 4979,
      "##stop": 4980,
      "##tif": 4981,
      "sja": 4982,
      "##let": 4983,
      "##_free_urb": 4984,
      "vzalloc": 4985,
      "##_get_drv": 4986,
      "outb_p": 4987,
      "##aq": 4988,
      "##lec": 4989,
      "##gp": 4990,
      "##_to_r": 4991,
      "##purge": 4992,
      "usbh": 4993,
      "##08": 4994,
      "##_p2p": 4995,
      "##ract_": 4996,
      "##g3_flag": 4997,
      "_tg3_flag": 4998,
      "##sing": 4999,
      "##_loop": 5000,
      "sub": 5001,
      "__mt": 5002,
      "kvzalloc": 5003,
      "##PHY": 5004,
      "##events": 5005,
      "start_": 5006,
      "fm10k": 5007,
      "##44": 5008,
      "netif_tx": 5009,
      "##_km": 5010,
      "r815": 5011,
      "##ust_check": 5012,
      "##_direct_": 5013,
      "pwm": 5014,
      "hpfs": 5015,
      "##bytes": 5016,
      "target_": 5017,
      "##s_rd": 5018,
      "##cleanup": 5019,
      "##tid": 5020,
      "##_write_data": 5021,
      "ath9k_hw_common": 5022,
      "pqi": 5023,
      "##_registers": 5024,
      "_bin2bcd": 5025,
      "##_css": 5026,
      "##speed_": 5027,
      "##_align": 5028,
      "__bpf_trace_": 5029,
      "acpi_ev": 5030,
      "hpfs_": 5031,
      "##_vport_": 5032,
      "##_sync_single_for": 5033,
      "##sen": 5034,
      "##3mr": 5035,
      "##_set_mode": 5036,
      "btrfs_alloc_path": 5037,
      "##sq": 5038,
      "##_walk": 5039,
      "##_connac": 5040,
      "pag": 5041,
      "##_bt": 5042,
      "##_hcd_": 5043,
      "pm_runtime_set_active": 5044,
      "trace_event_raw": 5045,
      "##xdp": 5046,
      "##ac97": 5047,
      "##queue_mapping": 5048,
      "typ": 5049,
      "##lots": 5050,
      "acpi_ut_status_": 5051,
      "trace_event_raw_event_": 5052,
      "acpi_ut_status_exit": 5053,
      "##_el": 5054,
      "##oin": 5055,
      "##var": 5056,
      "ieee80211_is_data": 5057,
      "cx24120": 5058,
      "should_resched": 5059,
      "musb": 5060,
      "##_ds": 5061,
      "rtl8723": 5062,
      "##kreg": 5063,
      "##endor": 5064,
      "##audio": 5065,
      "pan": 5066,
      "##_clk_register": 5067,
      "nla_put_u16": 5068,
      "snd_sof_dsp": 5069,
      "##mx": 5070,
      "##_inline_": 5071,
      "##164": 5072,
      "##vider": 5073,
      "##aluate_": 5074,
      "sysfs_emit": 5075,
      "eth_hdr": 5076,
      "mpi3mr": 5077,
      "##_diag": 5078,
      "##uper": 5079,
      "##mbox": 5080,
      "##_mig": 5081,
      "##251x": 5082,
      "dn": 5083,
      "xfs_trans": 5084,
      "ext4_get_": 5085,
      "drm_crtc": 5086,
      "##x25": 5087,
      "afs": 5088,
      "##_register_write": 5089,
      "##_broadcast_": 5090,
      "##devices": 5091,
      "##add_cmd": 5092,
      "##callback": 5093,
      "next_": 5094,
      "saa71": 5095,
      "o2net_": 5096,
      "##ias": 5097,
      "##32_to_cpu": 5098,
      "usb_get_serial_port_data": 5099,
      "##genet_": 5100,
      "pm_runtime_put_sync": 5101,
      "ceph_decode_32": 5102,
      "lpfc_": 5103,
      "rtsx_add_cmd": 5104,
      "##interrupt": 5105,
      "kmem_cach": 5106,
      "##_cursor": 5107,
      "bcmgenet_": 5108,
      "fimc": 5109,
      "##_ima": 5110,
      "##orture": 5111,
      "skb_network_header": 5112,
      "##blk": 5113,
      "##_pad": 5114,
      "##evf": 5115,
      "##_disconnect": 5116,
      "##_fpga": 5117,
      "##_col": 5118,
      "##lit": 5119,
      "##roto": 5120,
      "cros_": 5121,
      "##_convert_": 5122,
      "##virt_": 5123,
      "mnt_": 5124,
      "##tect_": 5125,
      "##fqq": 5126,
      "CIFS_SB": 5127,
      "##_dealloc": 5128,
      "##_connection": 5129,
      "stv0900": 5130,
      "##_bbp": 5131,
      "##11_0": 5132,
      "lpfc_dbg_print": 5133,
      "##_power_level": 5134,
      "em": 5135,
      "blk_rq": 5136,
      "mt76_connac": 5137,
      "##atal": 5138,
      "##112": 5139,
      "smb2": 5140,
      "ahash_request_": 5141,
      "##_nphy": 5142,
      "##print_": 5143,
      "qlcnic_83": 5144,
      "##iqu": 5145,
      "ath10k_h": 5146,
      "##_pltfm": 5147,
      "skb_put_": 5148,
      "##packet": 5149,
      "snic": 5150,
      "##buffers": 5151,
      "##_msecs": 5152,
      "##ication": 5153,
      "##_eq": 5154,
      "##abort_": 5155,
      "##kmode_": 5156,
      "linkmode_": 5157,
      "sec": 5158,
      "##ecute_": 5159,
      "##mote_": 5160,
      "##_ttm": 5161,
      "##fresh": 5162,
      "##_ho": 5163,
      "input_set_capability": 5164,
      "##_thermal": 5165,
      "##_break": 5166,
      "##_af": 5167,
      "VFS_I": 5168,
      "##_dpc": 5169,
      "pud_": 5170,
      "r8712": 5171,
      "##200": 5172,
      "##firm": 5173,
      "##_leg": 5174,
      "amdtp": 5175,
      "alloc_pages": 5176,
      "skb_queue_len": 5177,
      "##_detect": 5178,
      "##_assoc": 5179,
      "dpaa2_eth": 5180,
      "rv6xx_program": 5181,
      "ev": 5182,
      "##_detach": 5183,
      "##share": 5184,
      "##mission": 5185,
      "##53": 5186,
      "cx231": 5187,
      "ct": 5188,
      "##_v2": 5189,
      "##_zone_": 5190,
      "##elot_": 5191,
      "__dma_cap": 5192,
      "##_to_p": 5193,
      "is_zero_ether_addr": 5194,
      "##gid": 5195,
      "wl1251": 5196,
      "nl80211": 5197,
      "##_am": 5198,
      "##gg": 5199,
      "spi_message_": 5200,
      "##rd_": 5201,
      "##ed_spin_": 5202,
      "##col": 5203,
      "##_power_on": 5204,
      "##regs": 5205,
      "##hfi1": 5206,
      "queued_spin_": 5207,
      "##s_off": 5208,
      "##static": 5209,
      "##_disc": 5210,
      "##rror": 5211,
      "sja1105": 5212,
      "aead_request_": 5213,
      "##_mixer": 5214,
      "audit_log": 5215,
      "skb_set_": 5216,
      "sdhci_pltfm": 5217,
      "##_holder": 5218,
      "kthread_create_": 5219,
      "c4iw": 5220,
      "##lim": 5221,
      "##_get_phy": 5222,
      "skb_queue_head_init": 5223,
      "enet": 5224,
      "##direct_": 5225,
      "##uf": 5226,
      "##id_nr": 5227,
      "##mmio_clk": 5228,
      "has_": 5229,
      "##_sem": 5230,
      "__alloc": 5231,
      "p9": 5232,
      "##825": 5233,
      "##mod_": 5234,
      "##_reqtfm": 5235,
      "##v2": 5236,
      "##ena": 5237,
      "input_register_device": 5238,
      "make_k": 5239,
      "skb_reserve": 5240,
      "vega10": 5241,
      "##_legacy": 5242,
      "##decode": 5243,
      "nfp_flower": 5244,
      "##_of_two": 5245,
      "acpi_device_": 5246,
      "rtl818": 5247,
      "##1939": 5248,
      "##bt_": 5249,
      "scsi_sg": 5250,
      "nfsd4": 5251,
      "get_q": 5252,
      "netdev_get_": 5253,
      "##use_autosuspend": 5254,
      "fh": 5255,
      "skb_dst": 5256,
      "wm83": 5257,
      "ftrace_": 5258,
      "ip_vs_": 5259,
      "cma": 5260,
      "##_pow_of_two": 5261,
      "##SB": 5262,
      "mark_inode_dirty": 5263,
      "##mary": 5264,
      "dce_": 5265,
      "ehci": 5266,
      "nic": 5267,
      "##adapdata": 5268,
      "##ral": 5269,
      "##quota": 5270,
      "##_update_p": 5271,
      "smu_cmn": 5272,
      "##41er": 5273,
      "cxd2841er": 5274,
      "##_disabled": 5275,
      "##Get": 5276,
      "j1939": 5277,
      "##hub": 5278,
      "hn": 5279,
      "##ynq": 5280,
      "__devm_regmap_init_mmio_clk": 5281,
      "hid_hw": 5282,
      "##_active_": 5283,
      "##_mtd": 5284,
      "##prepare": 5285,
      "##_fronten": 5286,
      "##_rt_": 5287,
      "##elf": 5288,
      "cdn": 5289,
      "##s_get_debug_level": 5290,
      "ip_vs_get_debug_level": 5291,
      "usb_free_urb": 5292,
      "##_pkt_": 5293,
      "##elp": 5294,
      "w83": 5295,
      "##msr": 5296,
      "vb2_get_drv": 5297,
      "vb2_get_drv_priv": 5298,
      "ns": 5299,
      "__outl": 5300,
      "##les": 5301,
      "##_to_component": 5302,
      "##_uninit": 5303,
      "##frame_": 5304,
      "##_populate_": 5305,
      "rk": 5306,
      "##tx_desc": 5307,
      "dev_err": 5308,
      "exfa": 5309,
      "usb_set_intfdata": 5310,
      "dev_err_probe": 5311,
      "##_orig": 5312,
      "comedi_check_trigger_arg": 5313,
      "sun4i": 5314,
      "task_p": 5315,
      "strncpy": 5316,
      "ast_": 5317,
      "##_end_": 5318,
      "rol": 5319,
      "##arp": 5320,
      "##mii": 5321,
      "##build_": 5322,
      "##disk": 5323,
      "snd_soc_dapm_to_component": 5324,
      "net_eq": 5325,
      "##a665": 5326,
      "##_prefix": 5327,
      "##a66597": 5328,
      "##fs_remove": 5329,
      "llc": 5330,
      "memcpy": 5331,
      "cy": 5332,
      "##_shared": 5333,
      "devm_input_": 5334,
      "byte": 5335,
      "fill": 5336,
      "devm_input_allocate_device": 5337,
      "##on_node": 5338,
      "get_unaligned_le16": 5339,
      "vma": 5340,
      "##_to_u": 5341,
      "snd_usb": 5342,
      "##_get_next_": 5343,
      "kmem_cache_create": 5344,
      "##_buffer_dirty": 5345,
      "cpu_to": 5346,
      "##device_id": 5347,
      "xfs_alloc": 5348,
      "##_add_cmd": 5349,
      "wilc": 5350,
      "nvbios_rd": 5351,
      "coun": 5352,
      "##rsp": 5353,
      "gf": 5354,
      "##ord_": 5355,
      "vfio": 5356,
      "##_wake_queue": 5357,
      "##x_get_": 5358,
      "##s_alloc": 5359,
      "##_set_port_": 5360,
      "##wait_queue": 5361,
      "kthread_create_on_node": 5362,
      "xt_": 5363,
      "##_graph": 5364,
      "##free_s": 5365,
      "__comp": 5366,
      "nand_to": 5367,
      "phm": 5368,
      "##_ioremap_resource_": 5369,
      "devm_platform_ioremap_resource_": 5370,
      "devm_platform_ioremap_resource_byname": 5371,
      "intel_uncore_read": 5372,
      "jiffies_to_msecs": 5373,
      "crc32": 5374,
      "devm_snd_soc_register_component": 5375,
      "##_mer": 5376,
      "ktime_to": 5377,
      "fan": 5378,
      "##ild": 5379,
      "##_gate": 5380,
      "##thread": 5381,
      "phy_base_": 5382,
      "sata": 5383,
      "##_should_stop": 5384,
      "##_copy_from": 5385,
      "##gmac": 5386,
      "##inte": 5387,
      "##_set_tx": 5388,
      "dev_set_name": 5389,
      "##_worker": 5390,
      "lan78xx": 5391,
      "##resource": 5392,
      "ext": 5393,
      "snd_pcm_hw": 5394,
      "wmi": 5395,
      "##rmap": 5396,
      "rbd_": 5397,
      "meson": 5398,
      "##inder": 5399,
      "__snd_": 5400,
      "##_interrupts": 5401,
      "##leaf": 5402,
      "##_thread_": 5403,
      "##csi": 5404,
      "##_by_name": 5405,
      "##search": 5406,
      "vxlan": 5407,
      "it": 5408,
      "##_neigh": 5409,
      "##time_assert_": 5410,
      "##ommand_": 5411,
      "##iletime_assert_": 5412,
      "__compiletime_assert_": 5413,
      "pg": 5414,
      "##_not": 5415,
      "##tency": 5416,
      "##six_": 5417,
      "##quenc": 5418,
      "##s_free": 5419,
      "##_v4": 5420,
      "_rtw": 5421,
      "ktime_get_real": 5422,
      "##dev_name": 5423,
      "th": 5424,
      "zynq": 5425,
      "##_rect_": 5426,
      "PageUptodate": 5427,
      "my": 5428,
      "##free_c": 5429,
      "##eport_": 5430,
      "##89v": 5431,
      "debugfs_create_dir": 5432,
      "##7789v": 5433,
      "register_netdev": 5434,
      "ms": 5435,
      "intel_gt_": 5436,
      "mcp251x": 5437,
      "##564": 5438,
      "btrfs_sb": 5439,
      "AF": 5440,
      "##uct_": 5441,
      "##_sysfs_": 5442,
      "##_weight": 5443,
      "skb_headroom": 5444,
      "conn": 5445,
      "##tip": 5446,
      "##e_cap": 5447,
      "##_dpcd_": 5448,
      "ice_get_": 5449,
      "kvmalloc": 5450,
      "##_post": 5451,
      "se": 5452,
      "to_s": 5453,
      "fc_frame_": 5454,
      "macsec": 5455,
      "##_mac80211": 5456,
      "##ble": 5457,
      "GFS2_I": 5458,
      "##_isr": 5459,
      "##ifier": 5460,
      "##_plan": 5461,
      "##_assign": 5462,
      "##cpus": 5463,
      "##_ulp": 5464,
      "xfs_attr": 5465,
      "radeon_ring": 5466,
      "enc": 5467,
      "xgbe_": 5468,
      "ss": 5469,
      "##bd_": 5470,
      "skb_is_g": 5471,
      "##ift": 5472,
      "skb_is_gso": 5473,
      "##_bfqq": 5474,
      "##_auto": 5475,
      "qedi": 5476,
      "SiS_SetReg": 5477,
      "__btrfs_": 5478,
      "mem_cgroup": 5479,
      "##_set_inter": 5480,
      "sii": 5481,
      "syscon_regmap_lookup_by_phandle": 5482,
      "##_meta": 5483,
      "##target": 5484,
      "##_pkt": 5485,
      "##CR": 5486,
      "##_dma_map": 5487,
      "##ft_": 5488,
      "sst_": 5489,
      "##setting": 5490,
      "##_enum": 5491,
      "t7xx": 5492,
      "##ZER": 5493,
      "##ZERO": 5494,
      "st_": 5495,
      "##e_pay": 5496,
      "put_unaligned_le": 5497,
      "ixgbe_read_reg": 5498,
      "xgene_enet_": 5499,
      "enetc": 5500,
      "##_of_node": 5501,
      "##_get_and_": 5502,
      "reiserfs_write_": 5503,
      "eth_hw_addr_set": 5504,
      "##lru": 5505,
      "##_ahash": 5506,
      "##mask_var": 5507,
      "dib0": 5508,
      "cit_": 5509,
      "lan743": 5510,
      "mdio": 5511,
      "##_entri": 5512,
      "##referen": 5513,
      "nv50": 5514,
      "qca": 5515,
      "##_get_hw": 5516,
      "##_hv": 5517,
      "##_set_gpio": 5518,
      "##_offload_": 5519,
      "ubifs_assert_": 5520,
      "genlmsg_put": 5521,
      "##boot_": 5522,
      "p54": 5523,
      "bfa_fc": 5524,
      "##_writew": 5525,
      "##div": 5526,
      "##_tbl": 5527,
      "##exth": 5528,
      "##pfn": 5529,
      "PTR_ERR_OR_": 5530,
      "v4l2_ctrl_handler_init_": 5531,
      "kthread_should_stop": 5532,
      "PTR_ERR_OR_ZERO": 5533,
      "ubifs_assert_failed": 5534,
      "##ject_": 5535,
      "dev_put": 5536,
      "##ext_p": 5537,
      "##xen": 5538,
      "nvdimm": 5539,
      "vmci": 5540,
      "mapping": 5541,
      "v4l2_ctrl_handler_init_class": 5542,
      "fc_": 5543,
      "##dic": 5544,
      "##_interval": 5545,
      "##dif": 5546,
      "##_select": 5547,
      "iw": 5548,
      "##rink": 5549,
      "##lic": 5550,
      "##6xx": 5551,
      "st7789v": 5552,
      "##_adev": 5553,
      "##_bw": 5554,
      "##_pmu": 5555,
      "##getlb": 5556,
      "lg": 5557,
      "##_battery": 5558,
      "##covery": 5559,
      "neigh": 5560,
      "##assi": 5561,
      "##_fcp": 5562,
      "##_settings": 5563,
      "##_capture": 5564,
      "aac": 5565,
      "path": 5566,
      "##_global": 5567,
      "##_parse_dt": 5568,
      "##_fixed_": 5569,
      "##u3": 5570,
      "mt7615": 5571,
      "##_object": 5572,
      "device_property_read_bool": 5573,
      "##tual": 5574,
      "##apm": 5575,
      "rtllib": 5576,
      "##_get_d": 5577,
      "##650": 5578,
      "##_streaming": 5579,
      "__w": 5580,
      "##voltage_": 5581,
      "##p9": 5582,
      "##_tp": 5583,
      "##acket": 5584,
      "##arams": 5585,
      "##used_": 5586,
      "##_set_b": 5587,
      "##_jack": 5588,
      "spi_nor": 5589,
      "dump_stack": 5590,
      "##_inb": 5591,
      "##caps": 5592,
      "##bios": 5593,
      "nand_to_mtd": 5594,
      "##dev_device_": 5595,
      "wfx": 5596,
      "##lit_": 5597,
      "calc": 5598,
      "##_rsp": 5599,
      "##poll": 5600,
      "##oundup": 5601,
      "sched_": 5602,
      "##_stat_": 5603,
      "new": 5604,
      "##_1": 5605,
      "brcms": 5606,
      "##_shost": 5607,
      "##1200": 5608,
      "##ected": 5609,
      "##_hp": 5610,
      "rtl818x": 5611,
      "##and_s": 5612,
      "##box_": 5613,
      "ttm_bo": 5614,
      "rad": 5615,
      "##files": 5616,
      "##be_": 5617,
      "kfd_": 5618,
      "parport_": 5619,
      "saa7164": 5620,
      "usb_get_intfdata": 5621,
      "##_stor": 5622,
      "##_enc": 5623,
      "rtsx_usb": 5624,
      "fscrypt_": 5625,
      "skb_get_queue_mapping": 5626,
      "skb_header": 5627,
      "##_max_": 5628,
      "##_register_driver": 5629,
      "NFS_S": 5630,
      "nlmsg_put": 5631,
      "drm_dp_dpcd_": 5632,
      "mhi": 5633,
      "##_set_f": 5634,
      "zd_": 5635,
      "##_dep": 5636,
      "rtw_write32": 5637,
      "gpiod_set_value": 5638,
      "kasprintf": 5639,
      "##ager": 5640,
      "sysfs_remove_": 5641,
      "dib0700": 5642,
      "__ip": 5643,
      "tun": 5644,
      "xas_": 5645,
      "platform_device_": 5646,
      "nvif": 5647,
      "skb_frag": 5648,
      "##_send_msg_to": 5649,
      "stmmac": 5650,
      "##speed": 5651,
      "##andwidth": 5652,
      "wcn": 5653,
      "##_prefetch": 5654,
      "gfs2_holder": 5655,
      "##_orphan": 5656,
      "anx": 5657,
      "##dup_user": 5658,
      "snd_soc_dai_get_drvdata": 5659,
      "cache": 5660,
      "mmu": 5661,
      "##_mgr": 5662,
      "##_online_": 5663,
      "to_n": 5664,
      "##s_roc": 5665,
      "##gx": 5666,
      "##_use_": 5667,
      "##_multicast": 5668,
      "snd_ac97": 5669,
      "hisi_s": 5670,
      "##ethod": 5671,
      "##voltage": 5672,
      "##_erase": 5673,
      "##_pipe": 5674,
      "##_allow": 5675,
      "##inode_flag": 5676,
      "##available_": 5677,
      "##LE": 5678,
      "##_dummy": 5679,
      "wcn36": 5680,
      "##vp": 5681,
      "##BB": 5682,
      "##_cs": 5683,
      "##_tail": 5684,
      "##_delete_": 5685,
      "__ilog2_u32": 5686,
      "dir": 5687,
      "##name_": 5688,
      "##length": 5689,
      "##_validate": 5690,
      "##exthop": 5691,
      "##connect_": 5692,
      "##ld_": 5693,
      "btrfs_inode_": 5694,
      "##_interface_": 5695,
      "usb_put_": 5696,
      "##_led_": 5697,
      "##_mk": 5698,
      "##alth": 5699,
      "##ibdev_name": 5700,
      "ib_umem": 5701,
      "##min_": 5702,
      "##_volt": 5703,
      "wg": 5704,
      "##_jpeg": 5705,
      "##ioremap": 5706,
      "##rox": 5707,
      "rds": 5708,
      "##Error": 5709,
      "##_from_mac80211": 5710,
      "rt2800_rfc": 5711,
      "rt2800_rfcsr": 5712,
      "netlink": 5713,
      "sram": 5714,
      "##216": 5715,
      "##gment": 5716,
      "regcache_cache_only": 5717,
      "##IZ": 5718,
      "irq_data": 5719,
      "##IZE": 5720,
      "##_pri": 5721,
      "i915_gem_ww": 5722,
      "b43legacy_radio": 5723,
      "mxl": 5724,
      "##eeprom": 5725,
      "##_free_pages": 5726,
      "##_reserv": 5727,
      "##_interruptible": 5728,
      "##_dw": 5729,
      "##111": 5730,
      "##seg": 5731,
      "netif_is": 5732,
      "##8001": 5733,
      "nfp_net_": 5734,
      "snd_cs": 5735,
      "mlx5_core": 5736,
      "device_may": 5737,
      "device_may_wakeup": 5738,
      "##9t": 5739,
      "##_mu": 5740,
      "##pool": 5741,
      "##radio_reg": 5742,
      "rvt_get_ibdev_name": 5743,
      "exynos": 5744,
      "ww": 5745,
      "##_prov": 5746,
      "##_cfg80211": 5747,
      "##transfer": 5748,
      "qp": 5749,
      "##gc": 5750,
      "find_first_": 5751,
      "rv770_program": 5752,
      "__roundup": 5753,
      "__roundup_pow_of_two": 5754,
      "crypto_tfm": 5755,
      "##_hdrlen": 5756,
      "##_rings": 5757,
      "##_emit_": 5758,
      "##_mic": 5759,
      "##get_d": 5760,
      "tty_port_": 5761,
      "set_p": 5762,
      "usb_autop": 5763,
      "##UB": 5764,
      "##_mci": 5765,
      "##abel": 5766,
      "##_udc": 5767,
      "##_limit": 5768,
      "xprt_": 5769,
      "##DEV": 5770,
      "##exclusive": 5771,
      "##e_port": 5772,
      "clk_hw": 5773,
      "##finish": 5774,
      "##resp": 5775,
      "##plib": 5776,
      "regmap_bulk_read": 5777,
      "##_compat_": 5778,
      "##any": 5779,
      "##88e_": 5780,
      "r8a66597": 5781,
      "genl": 5782,
      "##otplug": 5783,
      "of_property_read_string": 5784,
      "##XD": 5785,
      "##fs_get_": 5786,
      "##63": 5787,
      "btrfs_releas": 5788,
      "##ERVER": 5789,
      "NFS_SERVER": 5790,
      "icmp": 5791,
      "##grity": 5792,
      "##_card": 5793,
      "btrfs_release_path": 5794,
      "##MD": 5795,
      "##eeded": 5796,
      "adev_to": 5797,
      "adev_to_drm": 5798,
      "##_phy_write32": 5799,
      "lpfc_nlp": 5800,
      "__underlying_memmove": 5801,
      "to_gt": 5802,
      "ieee80211_is_": 5803,
      "##46xx": 5804,
      "dib3000": 5805,
      "cros_ec": 5806,
      "netdev_get_tx_queue": 5807,
      "cw": 5808,
      "##tlv": 5809,
      "i915_gem_ww_ctx": 5810,
      "##23": 5811,
      "prandom": 5812,
      "__ath11k": 5813,
      "##_skip": 5814,
      "radix_": 5815,
      "##_current_": 5816,
      "dpu": 5817,
      "##orrup": 5818,
      "devm_platform_get_and_": 5819,
      "_btrfs": 5820,
      "##ioremap_resource": 5821,
      "devm_platform_get_and_ioremap_resource": 5822,
      "_btrfs_printk": 5823,
      "acpi_evaluate_": 5824,
      "hns_roc": 5825,
      "__rt": 5826,
      "##_to_dig": 5827,
      "trace_ath11k": 5828,
      "qede_": 5829,
      "##mk": 5830,
      "##ony": 5831,
      "##til": 5832,
      "##_vblank": 5833,
      "##ider": 5834,
      "##dpa": 5835,
      "##_devdata": 5836,
      "NV": 5837,
      "dss_": 5838,
      "##ft": 5839,
      "btrfs_search": 5840,
      "u64_stats_update_end": 5841,
      "u64_stats_update_begin": 5842,
      "inb_p": 5843,
      "##_extent": 5844,
      "##_msr": 5845,
      "pm8001": 5846,
      "##_sdvo": 5847,
      "rd_reg": 5848,
      "##_private": 5849,
      "__be32": 5850,
      "srcu_read_lock": 5851,
      "__be32_to_cpup": 5852,
      "##schedule": 5853,
      "##_tcp": 5854,
      "##_delete": 5855,
      "##args": 5856,
      "##stats_": 5857,
      "##_iowrite": 5858,
      "fl": 5859,
      "##_shadow": 5860,
      "mpt_": 5861,
      "##_kcontrol": 5862,
      "##_mapped": 5863,
      "atomic64_read": 5864,
      "##raid_": 5865,
      "##_to_dig_port": 5866,
      "##_dbi": 5867,
      "mlx4_en": 5868,
      "xfs_iext_": 5869,
      "##activate": 5870,
      "##_scratch": 5871,
      "NT": 5872,
      "##quency": 5873,
      "alx": 5874,
      "or": 5875,
      "##711": 5876,
      "is_s": 5877,
      "dl": 5878,
      "##_gfp": 5879,
      "i2c_transfer": 5880,
      "##_set_rx": 5881,
      "##_siena": 5882,
      "rtl_get_bbreg": 5883,
      "elan": 5884,
      "##is_valid": 5885,
      "dmz": 5886,
      "##_WR": 5887,
      "##_fixup": 5888,
      "##_qspi": 5889,
      "##_time": 5890,
      "snd_w": 5891,
      "psb": 5892,
      "ntb": 5893,
      "##_ov": 5894,
      "##racing": 5895,
      "##_pair": 5896,
      "__alloc_percpu": 5897,
      "##orb": 5898,
      "##2bin": 5899,
      "##_fdb": 5900,
      "rtw_get_": 5901,
      "##_sctp": 5902,
      "kref_read": 5903,
      "sd_": 5904,
      "##ges": 5905,
      "##files_": 5906,
      "##_conf": 5907,
      "to_v": 5908,
      "chan": 5909,
      "##_pipelin": 5910,
      "##Write": 5911,
      "##crtc": 5912,
      "niu": 5913,
      "edac": 5914,
      "fco": 5915,
      "intel_atomic": 5916,
      "xenbus_": 5917,
      "fls": 5918,
      "##_length": 5919,
      "hw_at": 5920,
      "##_cmd_send": 5921,
      "##_default_": 5922,
      "##_mfc": 5923,
      "##_notice": 5924,
      "##_parent": 5925,
      "##_bind": 5926,
      "##rm_req": 5927,
      "v4l2_ctrl_handler_free": 5928,
      "##sim": 5929,
      "##_get_pa": 5930,
      "radeon_fence_": 5931,
      "img": 5932,
      "hash_net": 5933,
      "##file_extent_": 5934,
      "qedr": 5935,
      "##_mutex_": 5936,
      "##_suspend_": 5937,
      "##_connect_": 5938,
      "__ath11k_dbg": 5939,
      "##wp": 5940,
      "##_set_c": 5941,
      "drm_rect_": 5942,
      "video_devdata": 5943,
      "##qplib": 5944,
      "##expect_": 5945,
      "##_subdev_init": 5946,
      "##_set_intercept": 5947,
      "##52": 5948,
      "selin": 5949,
      "dev_fwnode": 5950,
      "##available": 5951,
      "ax25": 5952,
      "nand": 5953,
      "kref_get": 5954,
      "efx_siena": 5955,
      "##_offload": 5956,
      "megasas_": 5957,
      "pfn": 5958,
      "##ose_": 5959,
      "ocrdma": 5960,
      "xfs_has_": 5961,
      "ish": 5962,
      "##_forc": 5963,
      "bnxt_qplib": 5964,
      "unregister_netdev": 5965,
      "##_batch": 5966,
      "##readl": 5967,
      "##_dcs_write_": 5968,
      "trace_ath11k_log_dbg_enabled": 5969,
      "##_remap": 5970,
      "##128": 5971,
      "of_find_property": 5972,
      "##_register_read": 5973,
      "##ysctl": 5974,
      "mutex": 5975,
      "##vdec": 5976,
      "skb_dequeue": 5977,
      "##_mii": 5978,
      "__arch": 5979,
      "sev": 5980,
      "##folio": 5981,
      "rt2800_bbp": 5982,
      "##_constra": 5983,
      "##vd": 5984,
      "##_watchdog": 5985,
      "##_init_hw": 5986,
      "##s_get": 5987,
      "skb_cl": 5988,
      "##buff": 5989,
      "##_boot_": 5990,
      "##_seconds": 5991,
      "NIno": 5992,
      "vid": 5993,
      "##_segment": 5994,
      "__snd_printk": 5995,
      "car": 5996,
      "##_ps_": 5997,
      "##_me": 5998,
      "Set": 5999,
      "##ped_": 6000,
      "##6000": 6001,
      "kmem_cache_destroy": 6002,
      "##graph": 6003,
      "##_unregister_device": 6004,
      "mt76x0": 6005,
      "##_server": 6006,
      "of_get_property": 6007,
      "sdev": 6008,
      "v4l2_device_register": 6009,
      "##8250": 6010,
      "##reno": 6011,
      "snd_emu10k": 6012,
      "##vl": 6013,
      "##operti": 6014,
      "dispc_read_reg": 6015,
      "##gfx": 6016,
      "##_samp": 6017,
      "##late_s": 6018,
      "##_final": 6019,
      "##_service_": 6020,
      "i2c_adapter": 6021,
      "btrfs_item_offset": 6022,
      "##_power_off": 6023,
      "__rtw": 6024,
      "##ens": 6025,
      "##adj": 6026,
      "##_fail": 6027,
      "amdgpu_atom": 6028,
      "##dex_": 6029,
      "##ital": 6030,
      "mei_cl": 6031,
      "mutex_is_locked": 6032,
      "get_job": 6033,
      "##_internal": 6034,
      "##bios_": 6035,
      "gve_": 6036,
      "rsn": 6037,
      "##_and": 6038,
      "##mic": 6039,
      "##_fmsg": 6040,
      "mempool_alloc": 6041,
      "exfat_": 6042,
      "bond_": 6043,
      "fdt": 6044,
      "##gram": 6045,
      "##87": 6046,
      "##insert": 6047,
      "svm_set_intercept": 6048,
      "##81": 6049,
      "nfc_ll": 6050,
      "ice_p": 6051,
      "__dma_cap_set": 6052,
      "clo": 6053,
      "nicvf": 6054,
      "##six_acl": 6055,
      "mmc_priv": 6056,
      "snd_es": 6057,
      "acpi_o": 6058,
      "##_access_": 6059,
      "md_": 6060,
      "##xmit": 6061,
      "ocelot_": 6062,
      "dev_to_node": 6063,
      "##writ": 6064,
      "netif_wake_queue": 6065,
      "intel_gvt_": 6066,
      "##_detect_": 6067,
      "lan743x": 6068,
      "sock_put": 6069,
      "atl1": 6070,
      "##network_header": 6071,
      "sync": 6072,
      "get_device": 6073,
      "##_uses_": 6074,
      "irq_set_": 6075,
      "##01u": 6076,
      "##9t112": 6077,
      "hal": 6078,
      "reg_write": 6079,
      "drm_to": 6080,
      "man": 6081,
      "##gn": 6082,
      "adreno": 6083,
      "drm_atomic_helper": 6084,
      "##_entries": 6085,
      "regulator_bulk_disable": 6086,
      "psp": 6087,
      "transport_": 6088,
      "get_unaligned_le32": 6089,
      "emit_": 6090,
      "##ison": 6091,
      "##_bsg": 6092,
      "##_mo": 6093,
      "rtl8xxxu_read32": 6094,
      "bfa_ioc": 6095,
      "##rame_": 6096,
      "##_Set": 6097,
      "is_power": 6098,
      "##controls": 6099,
      "##_accep": 6100,
      "asix": 6101,
      "##_oc": 6102,
      "##x_set_": 6103,
      "##tribute": 6104,
      "vsc85": 6105,
      "skb_header_pointer": 6106,
      "##_provider": 6107,
      "##dai": 6108,
      "##_root_": 6109,
      "xfs_dir2_data": 6110,
      "zynqmp": 6111,
      "##_block_size": 6112,
      "__kunmap": 6113,
      "##arx5": 6114,
      "##zone_": 6115,
      "##_hweight": 6116,
      "nfp_c": 6117,
      "##_compute_": 6118,
      "scsi_cmd_": 6119,
      "eth_type_": 6120,
      "##e_port_": 6121,
      "ath11k_warn": 6122,
      "__arch_hweight": 6123,
      "mo": 6124,
      "##ie_": 6125,
      "##_tt_": 6126,
      "devm_clk_get_optional": 6127,
      "##_sysfs": 6128,
      "ieee": 6129,
      "##righ": 6130,
      "mpt3sas_base_": 6131,
      "##_online_cpus": 6132,
      "##_cyc": 6133,
      "##free_pages": 6134,
      "##_each": 6135,
      "##780": 6136,
      "input_sync": 6137,
      "ath10k_warn": 6138,
      "of_match_node": 6139,
      "##8821a": 6140,
      "##3_leaf": 6141,
      "mt7601u": 6142,
      "percpu_counter": 6143,
      "sas_": 6144,
      "##journal": 6145,
      "##_dl": 6146,
      "##message": 6147,
      "##intel": 6148,
      "##_source": 6149,
      "##unlink": 6150,
      "cxgbi": 6151,
      "##espec64": 6152,
      "fat_": 6153,
      "##39": 6154,
      "##_hub": 6155,
      "v4l2_i2c": 6156,
      "rt_m": 6157,
      "DIS": 6158,
      "pm_runtime_use_autosuspend": 6159,
      "DISPC": 6160,
      "##v3": 6161,
      "##struct": 6162,
      "##autosuspend_": 6163,
      "##_errno": 6164,
      "le32_get_bits": 6165,
      "##c_update_": 6166,
      "##pcie_": 6167,
      "##d_phy_reg": 6168,
      "dw_pcie_": 6169,
      "##mun": 6170,
      "##_bc": 6171,
      "##_changed": 6172,
      "dquot_initialize": 6173,
      "esw": 6174,
      "early": 6175,
      "##chain_": 6176,
      "##enu": 6177,
      "ena": 6178,
      "ext2": 6179,
      "##d_m": 6180,
      "##chor": 6181,
      "usb_stor": 6182,
      "##inline_data": 6183,
      "##_clear_bits": 6184,
      "##send": 6185,
      "##sector": 6186,
      "##_udata": 6187,
      "##_basic": 6188,
      "btrfs_ino": 6189,
      "cw1200": 6190,
      "##_cl45": 6191,
      "##by_id": 6192,
      "input_set_drvdata": 6193,
      "##hcb": 6194,
      "write_phy_reg": 6195,
      "nouveau_drm": 6196,
      "##ust_check_helper": 6197,
      "nfc_llcp": 6198,
      "sparx5": 6199,
      "##uple": 6200,
      "chip": 6201,
      "ccp": 6202,
      "s3c": 6203,
      "##wb": 6204,
      "dev_alloc_skb": 6205,
      "##cmd_s": 6206,
      "nilfs_": 6207,
      "##_compress": 6208,
      "mlxsw_core": 6209,
      "##autosuspend_delay": 6210,
      "i2c_master": 6211,
      "##_rdonly": 6212,
      "##_of_parse_": 6213,
      "##operties": 6214,
      "##last": 6215,
      "##_events": 6216,
      "bt_err": 6217,
      "##_pe": 6218,
      "__ffs": 6219,
      "pm_runtime_set_autosuspend_delay": 6220,
      "##route": 6221,
      "fsnotify": 6222,
      "mb86": 6223,
      "##peer": 6224,
      "##_iounmap": 6225,
      "req": 6226,
      "net22": 6227,
      "##_rmw": 6228,
      "##_of_2": 6229,
      "##_shm": 6230,
      "is_power_of_2": 6231,
      "vp": 6232,
      "build_": 6233,
      "##_OF": 6234,
      "##_ca": 6235,
      "##_mod_": 6236,
      "to_state": 6237,
      "bnx2x_cl45": 6238,
      "##e_ptr": 6239,
      "dma_sync_single_for": 6240,
      "##clr": 6241,
      "##_mag": 6242,
      "##_is_valid_": 6243,
      "account_": 6244,
      "fwnode_property_read_u32": 6245,
      "torture": 6246,
      "##FSET": 6247,
      "##_allocate_device": 6248,
      "##tunnel": 6249,
      "##EM": 6250,
      "ocfs2_inode_": 6251,
      "##ank": 6252,
      "pmc": 6253,
      "pci_write_config_word": 6254,
      "a6xx": 6255,
      "phy_base_write": 6256,
      "##_v6": 6257,
      "##client_": 6258,
      "p4": 6259,
      "##lbl": 6260,
      "##orbell": 6261,
      "selinux": 6262,
      "##next": 6263,
      "##_quota": 6264,
      "##_cc": 6265,
      "cx231xx": 6266,
      "phm_cap": 6267,
      "##_inf": 6268,
      "##_perf": 6269,
      "##_reporting": 6270,
      "##e_sub": 6271,
      "##munged": 6272,
      "##_notifier_info": 6273,
      "GFS2": 6274,
      "##cd_": 6275,
      "##_replace_": 6276,
      "GFS2_SB": 6277,
      "##_lag": 6278,
      "mddev": 6279,
      "mtu3": 6280,
      "sb_rdonly": 6281,
      "rtl8188e_": 6282,
      "##e_percpu": 6283,
      "ari": 6284,
      "##malloc": 6285,
      "##_lower": 6286,
      "num_online_cpus": 6287,
      "##_F": 6288,
      "##e_set": 6289,
      "##cookie": 6290,
      "##_SIZE": 6291,
      "ctnetlink": 6292,
      "##hr": 6293,
      "##_inv": 6294,
      "##_output": 6295,
      "##equal": 6296,
      "##zona": 6297,
      "ahci": 6298,
      "##nfs4": 6299,
      "__netif": 6300,
      "rav": 6301,
      "##_update_device": 6302,
      "##fast": 6303,
      "##6x": 6304,
      "fsi": 6305,
      "##target_": 6306,
      "##eive": 6307,
      "arizona": 6308,
      "mlx4_priv": 6309,
      "##_transaction": 6310,
      "##warn": 6311,
      "CIFS_I": 6312,
      "##CT": 6313,
      "##rcv": 6314,
      "##_media": 6315,
      "##ardown": 6316,
      "amvdec": 6317,
      "para": 6318,
      "##_send_command": 6319,
      "kvm_vcpu": 6320,
      "sdhci_priv": 6321,
      "s5p_mfc": 6322,
      "wcn36xx": 6323,
      "scsi_cmd_to": 6324,
      "cq": 6325,
      "isp": 6326,
      "##_ts": 6327,
      "##_is_m": 6328,
      "ahc_outb": 6329,
      "##_defer": 6330,
      "##e_proc": 6331,
      "##_pd": 6332,
      "##fh": 6333,
      "##_port_get_": 6334,
      "##gmt": 6335,
      "intel_v": 6336,
      "##_aux": 6337,
      "serio": 6338,
      "##wrap": 6339,
      "##regulator": 6340,
      "##_label": 6341,
      "##base": 6342,
      "##_bind_": 6343,
      "##_gu": 6344,
      "##_insert": 6345,
      "devm_reset_control_get_": 6346,
      "jbd2_journal": 6347,
      "sv": 6348,
      "acpi_ut_trace": 6349,
      "##_vmx": 6350,
      "##np": 6351,
      "##_dup": 6352,
      "##_scal": 6353,
      "iio_trigger": 6354,
      "gpiod_": 6355,
      "##base_": 6356,
      "__udelay": 6357,
      "ksz": 6358,
      "ptp": 6359,
      "##_pfn": 6360,
      "##response": 6361,
      "##384": 6362,
      "radeon_get_": 6363,
      "##_div": 6364,
      "devm_kfree": 6365,
      "##signal": 6366,
      "##AST": 6367,
      "##_hw_init": 6368,
      "##4965": 6369,
      "##_set_v": 6370,
      "##ameport_": 6371,
      "##multi": 6372,
      "if": 6373,
      "##ni": 6374,
      "##gid_": 6375,
      "##acity": 6376,
      "##e_page_": 6377,
      "fscache_": 6378,
      "##9170": 6379,
      "##src": 6380,
      "trace_f2": 6381,
      "##after": 6382,
      "##access_": 6383,
      "##ine_": 6384,
      "##_syn": 6385,
      "##mail": 6386,
      "##d_sub": 6387,
      "##output": 6388,
      "##_mac_header": 6389,
      "##St": 6390,
      "##_job": 6391,
      "addr": 6392,
      "##7511": 6393,
      "##stat_": 6394,
      "ipa": 6395,
      "##boot": 6396,
      "##scsih": 6397,
      "##defer": 6398,
      "##esh": 6399,
      "##ities": 6400,
      "netif_is_": 6401,
      "block": 6402,
      "##tty": 6403,
      "##_target_": 6404,
      "##loop": 6405,
      "wake_up_process": 6406,
      "##7000": 6407,
      "##parent": 6408,
      "enic": 6409,
      "##present": 6410,
      "devm_rtc": 6411,
      "##_vport": 6412,
      "##irst_": 6413,
      "set_tx_desc": 6414,
      "ov564": 6415,
      "scsi_cmd_to_rq": 6416,
      "##l9170": 6417,
      "##US_": 6418,
      "##uration": 6419,
      "skge_": 6420,
      "kasan": 6421,
      "verify": 6422,
      "rtw_hal_write_": 6423,
      "##_mail": 6424,
      "##io_state": 6425,
      "##_space_": 6426,
      "##_timer_wait_": 6427,
      "r5": 6428,
      "##RO": 6429,
      "pci_dev_put": 6430,
      "encode_": 6431,
      "##_hs": 6432,
      "mb86a": 6433,
      "debugfs_remove": 6434,
      "btrfs_get_": 6435,
      "alc": 6436,
      "##elem": 6437,
      "##hcd": 6438,
      "##extent_buffer": 6439,
      "dib7000": 6440,
      "##ult_": 6441,
      "##_assert_": 6442,
      "##_wdt_": 6443,
      "xfs_is": 6444,
      "rp": 6445,
      "auto": 6446,
      "##_latency": 6447,
      "net2272": 6448,
      "iio_device_": 6449,
      "##79": 6450,
      "##und": 6451,
      "##_mbox_": 6452,
      "ixgbe_write_reg": 6453,
      "skb_network_offset": 6454,
      "##fa384": 6455,
      "led_": 6456,
      "##_car": 6457,
      "##ift_": 6458,
      "snd_emu10k1": 6459,
      "##ctor": 6460,
      "hlist_add_": 6461,
      "##_mdsc": 6462,
      "rfkill": 6463,
      "##_ino": 6464,
      "hfa384": 6465,
      "megasas": 6466,
      "cb": 6467,
      "##defaul": 6468,
      "scsi_buff": 6469,
      "scsi_bufflen": 6470,
      "##eat_": 6471,
      "##xxx_": 6472,
      "__wil": 6473,
      "hns_roce_": 6474,
      "##_compare": 6475,
      "device_init_": 6476,
      "##_modeset": 6477,
      "input_allocate_device": 6478,
      "##_overflow": 6479,
      "##ddy": 6480,
      "##_slow": 6481,
      "##depth": 6482,
      "drm_to_adev": 6483,
      "ecryp": 6484,
      "##s_i2c": 6485,
      "##_vc": 6486,
      "##vmx": 6487,
      "ecryptfs_": 6488,
      "adp": 6489,
      "##ari": 6490,
      "smu7": 6491,
      "il4965": 6492,
      "##_release_host": 6493,
      "##dev_get_": 6494,
      "##interval": 6495,
      "memdup_user": 6496,
      "ieee802154": 6497,
      "##_is_un": 6498,
      "bitmap_zero": 6499,
      "dib0700_set_gpio": 6500,
      "##_bmi": 6501,
      "##_patch": 6502,
      "##_runtim": 6503,
      "__x": 6504,
      "##_write_bits": 6505,
      "pci_iomap": 6506,
      "##_record_": 6507,
      "free_percpu": 6508,
      "acpi_dev": 6509,
      "load_": 6510,
      "ntfs": 6511,
      "i2c_adapter_id": 6512,
      "##write32": 6513,
      "##_qos_": 6514,
      "##_one_": 6515,
      "##modes": 6516,
      "__inl": 6517,
      "rt2x00mmio": 6518,
      "##process": 6519,
      "fnic_priv": 6520,
      "xas": 6521,
      "ena_c": 6522,
      "##_bulk_urb": 6523,
      "##_kms_": 6524,
      "paravirt_": 6525,
      "ath11k_dp": 6526,
      "##_nlink": 6527,
      "##_bucket": 6528,
      "uverbs_attr": 6529,
      "##tb": 6530,
      "ipr": 6531,
      "ocfs2_journal": 6532,
      "phy_get_drvdata": 6533,
      "##diobus_": 6534,
      "##mailbox": 6535,
      "virtqueue_": 6536,
      "count_": 6537,
      "##_null": 6538,
      "##_initialized": 6539,
      "##fro": 6540,
      "##idle_": 6541,
      "drm_mm": 6542,
      "op_is_": 6543,
      "vnic": 6544,
      "##d_send_": 6545,
      "##extents": 6546,
      "nand_get_": 6547,
      "cx24120_writereg": 6548,
      "super": 6549,
      "##wl8k": 6550,
      "posix_acl": 6551,
      "##xmit_": 6552,
      "##_brelse": 6553,
      "dma_resv": 6554,
      "mlx5_cmd_": 6555,
      "spi_get_": 6556,
      "##oke": 6557,
      "eth_type_trans": 6558,
      "##meta": 6559,
      "##_mgmt_": 6560,
      "##cd2bin": 6561,
      "nf_ct_expect_": 6562,
      "##amil": 6563,
      "smum": 6564,
      "tipc_node_": 6565,
      "ahd_inb": 6566,
      "##ustom": 6567,
      "mdp": 6568,
      "r8153": 6569,
      "##amily": 6570,
      "regmap_field_": 6571,
      "bfq_bfqq": 6572,
      "__get_free_pages": 6573,
      "##501": 6574,
      "w1": 6575,
      "##_vsi": 6576,
      "queued_spin_is_locked": 6577,
      "rtl8188e_PHY": 6578,
      "##_grab": 6579,
      "__builtin_va_end": 6580,
      "##artition": 6581,
      "##_custom": 6582,
      "qla82xx": 6583,
      "carl9170": 6584,
      "binder": 6585,
      "##225": 6586,
      "__dynamic_ibdev": 6587,
      "##codec": 6588,
      "__mt9t112": 6589,
      "__dynamic_ibdev_dbg": 6590,
      "snd_m": 6591,
      "xfs_qm": 6592,
      "memalloc": 6593,
      "##_hba": 6594,
      "##e_pending": 6595,
      "tipc_": 6596,
      "afs_ext": 6597,
      "##_gfx": 6598,
      "mmc_": 6599,
      "rol32": 6600,
      "rs": 6601,
      "tps": 6602,
      "##64bit_": 6603,
      "scsi_target": 6604,
      "acpi_n": 6605,
      "phylink": 6606,
      "ena_com": 6607,
      "##cal": 6608,
      "##_read_value": 6609,
      "##ACHE": 6610,
      "mwl8k": 6611,
      "##bp": 6612,
      "drm_panel": 6613,
      "vxge_hw": 6614,
      "##BBReg": 6615,
      "##_execute_": 6616,
      "##_buf_release": 6617,
      "dma_map_sg_attrs": 6618,
      "##wqe_": 6619,
      "uhci": 6620,
      "##Read": 6621,
      "mod_phy_reg": 6622,
      "_bcd2bin": 6623,
      "##26": 6624,
      "local_bh_enable": 6625,
      "##nor": 6626,
      "##_key_to_cpu": 6627,
      "##130": 6628,
      "##11x": 6629,
      "task_pid_nr": 6630,
      "##_features": 6631,
      "usb_hcd_": 6632,
      "##from_buffer": 6633,
      "##_namesp": 6634,
      "to_vmx": 6635,
      "__iwl_err": 6636,
      "fput": 6637,
      "##_write_phy": 6638,
      "rtw89_phy_write32": 6639,
      "##64bit_val": 6640,
      "match": 6641,
      "##slot": 6642,
      "##ugetlb": 6643,
      "##_get_name": 6644,
      "skb_peek": 6645,
      "show": 6646,
      "synchronize_rcu": 6647,
      "##_mailbox": 6648,
      "##exception": 6649,
      "##760": 6650,
      "##_has_cap": 6651,
      "hns3": 6652,
      "##_ipc": 6653,
      "##_prev": 6654,
      "##_uc": 6655,
      "##yscall": 6656,
      "##reserve": 6657,
      "frame": 6658,
      "##otify": 6659,
      "framebuffer": 6660,
      "cyp": 6661,
      "usb_kill": 6662,
      "netif_tx_": 6663,
      "radix_tree_": 6664,
      "##_set_re": 6665,
      "##_L": 6666,
      "##330": 6667,
      "##_setkey": 6668,
      "##_xmit": 6669,
      "local_bh_disable": 6670,
      "e1e_": 6671,
      "hid_get_drvdata": 6672,
      "##_TO": 6673,
      "sysfs_create_group": 6674,
      "amdgpu_ra": 6675,
      "##_htc": 6676,
      "mempool_free": 6677,
      "##_really": 6678,
      "hw_atl": 6679,
      "##vsc": 6680,
      "##rain_": 6681,
      "##ision": 6682,
      "##agg": 6683,
      "btrfs_file_extent_": 6684,
      "usb_fill_bulk_urb": 6685,
      "##885": 6686,
      "##_driver_register": 6687,
      "smsc94": 6688,
      "ravb": 6689,
      "smsc9420": 6690,
      "rq": 6691,
      "##_send_msg_to_smc": 6692,
      "get_f": 6693,
      "##ipw": 6694,
      "v4l2_device_unregister": 6695,
      "si4": 6696,
      "##_monitor": 6697,
      "mii": 6698,
      "##_simple_": 6699,
      "##_upload_": 6700,
      "timer_pending": 6701,
      "##r_priv": 6702,
      "##_order": 6703,
      "##_claim_host": 6704,
      "##now": 6705,
      "_dev_notice": 6706,
      "##_reclaim": 6707,
      "e1000e_": 6708,
      "rtl_write_dword": 6709,
      "atomic64_inc": 6710,
      "##rx_desc": 6711,
      "atomic_long_read": 6712,
      "##_voltage_": 6713,
      "vlv": 6714,
      "##_operation": 6715,
      "strcasecmp": 6716,
      "##value_": 6717,
      "JFS_SB": 6718,
      "##aff": 6719,
      "amdgpu_sriov_wreg": 6720,
      "JFS_SBI": 6721,
      "##_nrite": 6722,
      "##abl": 6723,
      "##cred": 6724,
      "##_nritems": 6725,
      "##pad": 6726,
      "##_cd": 6727,
      "##lax": 6728,
      "__builtin_prefetch": 6729,
      "##c_lc": 6730,
      "buil": 6731,
      "##NODE": 6732,
      "netif_device_present": 6733,
      "##era": 6734,
      "##ecc": 6735,
      "kmem_cache_alloc": 6736,
      "rocker": 6737,
      "##_random": 6738,
      "##_digest": 6739,
      "##free_call": 6740,
      "__builtin_va_start": 6741,
      "gameport_": 6742,
      "##74": 6743,
      "netxen": 6744,
      "skb_dst_": 6745,
      "netdev_notifier_info": 6746,
      "si216": 6747,
      "##_ipv6": 6748,
      "saa7146": 6749,
      "mutex_trylock": 6750,
      "##strto": 6751,
      "##_inline_decode": 6752,
      "aty": 6753,
      "irq_data_get_irq": 6754,
      "han": 6755,
      "##bh": 6756,
      "rt2800_bbp_write": 6757,
      "##_arch": 6758,
      "cpus": 6759,
      "rt2800_rfcsr_write": 6760,
      "##bm": 6761,
      "free_pages": 6762,
      "##_input": 6763,
      "##bool": 6764,
      "nilfs_btree_": 6765,
      "node_": 6766,
      "##pending": 6767,
      "##_nent": 6768,
      "##aux": 6769,
      "wlc_lc": 6770,
      "wlc_lcnphy": 6771,
      "##_by_id": 6772,
      "nci": 6773,
      "pl": 6774,
      "##_move_": 6775,
      "ishtp": 6776,
      "##gh": 6777,
      "##_sl": 6778,
      "rt711": 6779,
      "##_ir": 6780,
      "skb_queue_tail": 6781,
      "xdr_inline_decode": 6782,
      "##_retry": 6783,
      "##sid_": 6784,
      "##t_reg": 6785,
      "##_non": 6786,
      "##_abort_": 6787,
      "##real_num": 6788,
      "irq_data_get_irq_chip": 6789,
      "refcount_dec_and_test": 6790,
      "##Anon": 6791,
      "##_exception": 6792,
      "##_cpu_has": 6793,
      "##mac_address": 6794,
      "serdev_device_": 6795,
      "##attern": 6796,
      "snd_hda_codec": 6797,
      "input_report_abs": 6798,
      "##deb": 6799,
      "##_ld": 6800,
      "__sctp": 6801,
      "rn": 6802,
      "##endpoint_": 6803,
      "##transport_": 6804,
      "##wake": 6805,
      "##e_clear": 6806,
      "__imx": 6807,
      "drm_dev_printk": 6808,
      "trace_ext4": 6809,
      "netif_set_": 6810,
      "##_mtu": 6811,
      "ufshcd_dm": 6812,
      "##_queue_stopped": 6813,
      "##parse": 6814,
      "##child_by_name": 6815,
      "##fixed_": 6816,
      "##rpm": 6817,
      "##_ports": 6818,
      "##ITE": 6819,
      "mat": 6820,
      "##suspended": 6821,
      "##TRAN": 6822,
      "lib": 6823,
      "##cluster": 6824,
      "xfs_has": 6825,
      "vch": 6826,
      "##ries": 6827,
      "INODE": 6828,
      "mlx5_eswitch": 6829,
      "inet6_sk": 6830,
      "vchiq": 6831,
      "x86": 6832,
      "##_DEV": 6833,
      "##_ste_": 6834,
      "trace_seq": 6835,
      "cifs_sb": 6836,
      "of_get_next_child": 6837,
      "##uma": 6838,
      "##parse_": 6839,
      "##zone": 6840,
      "##_sdma": 6841,
      "##_close_": 6842,
      "##_blkaddr": 6843,
      "csum": 6844,
      "cond_": 6845,
      "##_OFFSET": 6846,
      "##_bm": 6847,
      "napi_enable": 6848,
      "sas": 6849,
      "put_unaligned_be": 6850,
      "##_sig": 6851,
      "##_divider": 6852,
      "sony": 6853,
      "##_WRITE": 6854,
      "##9000": 6855,
      "##delete": 6856,
      "##beacon": 6857,
      "gru": 6858,
      "btrfs_search_slot": 6859,
      "##vid_": 6860,
      "sctp_sk": 6861,
      "##28xx": 6862,
      "skb_queue_purge": 6863,
      "amdgpu_sriov_rreg": 6864,
      "_static": 6865,
      "##_zalloc": 6866,
      "##_pwr": 6867,
      "device_create_": 6868,
      "##iscsi": 6869,
      "##ical_block_size": 6870,
      "_static_cpu_has": 6871,
      "dp_to_dig_port": 6872,
      "snd_seq": 6873,
      "##_addres": 6874,
      "of_get_child_by_name": 6875,
      "assoc": 6876,
      "get_random": 6877,
      "##_dma_unmap": 6878,
      "dm_table_": 6879,
      "__ceph": 6880,
      "qat_hal_wr": 6881,
      "##alarm": 6882,
      "##_nvram": 6883,
      "dib3000_write_reg": 6884,
      "flush_work": 6885,
      "##_to_node": 6886,
      "schedule": 6887,
      "kg": 6888,
      "##mac_header": 6889,
      "##tered": 6890,
      "##_startup": 6891,
      "v9fs_": 6892,
      "##iov": 6893,
      "##_blocksize": 6894,
      "spi_set_drvdata": 6895,
      "##connector": 6896,
      "intel_engine_": 6897,
      "pri": 6898,
      "imx_": 6899,
      "##help": 6900,
      "napi_disable": 6901,
      "##Lock": 6902,
      "##_sur": 6903,
      "dmar": 6904,
      "kvfree_call": 6905,
      "##_runtime_pm": 6906,
      "kvfree_call_rcu": 6907,
      "##xt_p": 6908,
      "skb_mac_header": 6909,
      "##mix": 6910,
      "##onent_": 6911,
      "##_block_data": 6912,
      "##_dmx": 6913,
      "jhash": 6914,
      "##lace": 6915,
      "buffer_uptodate": 6916,
      "simple_read_": 6917,
      "##hw_to_dev": 6918,
      "ice_hw_to_dev": 6919,
      "PageAnon": 6920,
      "##_tid_": 6921,
      "simple_read_from_buffer": 6922,
      "##mac_": 6923,
      "##_nmi": 6924,
      "##_trig": 6925,
      "bnx2fc": 6926,
      "##plic": 6927,
      "##ypass": 6928,
      "##uncate": 6929,
      "_ieee80211_hw_set": 6930,
      "__clear_bit": 6931,
      "rt_mutex_": 6932,
      "fi": 6933,
      "##1001": 6934,
      "##ront_": 6935,
      "##66": 6936,
      "##cmi": 6937,
      "pnfs_": 6938,
      "xdr_stream": 6939,
      "##domain_": 6940,
      "##ait": 6941,
      "##s_to_resource": 6942,
      "##_timings": 6943,
      "##_tlb": 6944,
      "##uart_": 6945,
      "##_vdev": 6946,
      "##_node_to": 6947,
      "EXT2": 6948,
      "qlcnic_83xx": 6949,
      "via": 6950,
      "##ensitive": 6951,
      "_iba": 6952,
      "##vid": 6953,
      "##_gid_": 6954,
      "skb_tailroom": 6955,
      "##_rfc1001": 6956,
      "##_irq_vector": 6957,
      "op_is_write": 6958,
      "##mapped": 6959,
      "##prop": 6960,
      "##guest_": 6961,
      "##reference": 6962,
      "##ique": 6963,
      "##RA": 6964,
      "__devm_request_region": 6965,
      "dvb_dmx": 6966,
      "inc_rfc1001": 6967,
      "inc_rfc1001_len": 6968,
      "##allback": 6969,
      "##_parent_": 6970,
      "v4l2_i2c_subdev_init": 6971,
      "##xchg": 6972,
      "##_unpin": 6973,
      "##_args": 6974,
      "##flow_rule": 6975,
      "sdma": 6976,
      "##_wr_reg": 6977,
      "cmd_": 6978,
      "crc32_le": 6979,
      "made": 6980,
      "##d_data": 6981,
      "xfs_bmap": 6982,
      "##_icm": 6983,
      "spi_get_device_id": 6984,
      "madera": 6985,
      "##mux": 6986,
      "##zero_bit": 6987,
      "##_page_attrs": 6988,
      "##free_sensitive": 6989,
      "__platform": 6990,
      "##irr": 6991,
      "##_device_init": 6992,
      "strnlen": 6993,
      "##final": 6994,
      "ath6kl_wmi": 6995,
      "##bridge": 6996,
      "##and_add": 6997,
      "cpuhp": 6998,
      "nfnl": 6999,
      "##noresume": 7000,
      "rb_first": 7001,
      "##spinner": 7002,
      "igt_spinner": 7003,
      "##ton": 7004,
      "##input": 7005,
      "##_allocate": 7006,
      "nft_set_ext_": 7007,
      "kmap_atomic": 7008,
      "SET_": 7009,
      "##_result": 7010,
      "adv7511": 7011,
      "##move_tail": 7012,
      "xfs_da": 7013,
      "btrfs_super": 7014,
      "##_calculate_": 7015,
      "SetPage": 7016,
      "HFS": 7017,
      "##_safe": 7018,
      "list_move_tail": 7019,
      "##PLUS_": 7020,
      "fib6": 7021,
      "HFSPLUS_": 7022,
      "##led_": 7023,
      "##_need_": 7024,
      "##task_struct": 7025,
      "_raw_write_lock_bh": 7026,
      "sdhci_pltfm_priv": 7027,
      "##wc": 7028,
      "##_iv": 7029,
      "netif_napi": 7030,
      "unix": 7031,
      "##_extcon": 7032,
      "lowpan": 7033,
      "##_bucket_": 7034,
      "bio_list_": 7035,
      "device_init_wakeup": 7036,
      "tracing": 7037,
      "fun": 7038,
      "qm": 7039,
      "##vport_": 7040,
      "ar900": 7041,
      "##_mmc": 7042,
      "_raw_write_unlock_bh": 7043,
      "skb_transport_offset": 7044,
      "trace_hfi1": 7045,
      "##ired": 7046,
      "##dos": 7047,
      "##_pio": 7048,
      "##_res_": 7049,
      "##verbs": 7050,
      "acpi_get_": 7051,
      "raw": 7052,
      "##_adjust_": 7053,
      "rh": 7054,
      "##features": 7055,
      "##_shrink": 7056,
      "mb86a20": 7057,
      "for": 7058,
      "##revok": 7059,
      "##_readw": 7060,
      "complete_": 7061,
      "ocp_reg_read": 7062,
      "##e_create_": 7063,
      "##_fast": 7064,
      "get_p": 7065,
      "tb_route": 7066,
      "##_bg": 7067,
      "__q": 7068,
      "##921": 7069,
      "##color": 7070,
      "##8000": 7071,
      "ERR_C": 7072,
      "lan96": 7073,
      "ERR_CAST": 7074,
      "##hore": 7075,
      "##aphore": 7076,
      "##note_": 7077,
      "##_sa": 7078,
      "v4l2_async": 7079,
      "##_add_cpu": 7080,
      "##_head_": 7081,
      "l2": 7082,
      "##sed": 7083,
      "##_ipp": 7084,
      "extcon": 7085,
      "AFFS_I": 7086,
      "##_nvm": 7087,
      "ice_vsi": 7088,
      "##join": 7089,
      "##obuf": 7090,
      "##_track": 7091,
      "d_really": 7092,
      "##FI": 7093,
      "##_wlan": 7094,
      "ath11k_mac": 7095,
      "##_own": 7096,
      "##SD": 7097,
      "##_tmp": 7098,
      "##_uint_": 7099,
      "##_cip": 7100,
      "crypto_free_": 7101,
      "##reply": 7102,
      "ocp_write_word": 7103,
      "schedule_timeout": 7104,
      "sg_init_table": 7105,
      "fdt32": 7106,
      "##_devices": 7107,
      "##_is_a": 7108,
      "##_CACHE": 7109,
      "##params": 7110,
      "##_css_": 7111,
      "xfs_btree_get_": 7112,
      "irq_data_get_irq_chip_data": 7113,
      "pm_runtime_get_noresume": 7114,
      "efc_node_": 7115,
      "brcmf_fil": 7116,
      "NTFS_I": 7117,
      "__i915": 7118,
      "##_message": 7119,
      "prism": 7120,
      "amap": 7121,
      "ram": 7122,
      "##int_p": 7123,
      "##btc": 7124,
      "##jack": 7125,
      "##_child": 7126,
      "params_channels": 7127,
      "##initialized": 7128,
      "btree_": 7129,
      "trace_kvm": 7130,
      "##_qm": 7131,
      "tb_port_": 7132,
      "nvme_tcp": 7133,
      "##inod": 7134,
      "trace_b": 7135,
      "##PXD": 7136,
      "##_get_state": 7137,
      "##srl": 7138,
      "##protocol": 7139,
      "may": 7140,
      "##dr_csr": 7141,
      "##linear": 7142,
      "##cid": 7143,
      "vga_out": 7144,
      "INODE_CACHE": 7145,
      "##_csi": 7146,
      "##_iq": 7147,
      "smp": 7148,
      "##ough": 7149,
      "br_multicast_": 7150,
      "##_slot_": 7151,
      "##_conver": 7152,
      "mlx5_ib": 7153,
      "##ugep": 7154,
      "##182": 7155,
      "qib_write_": 7156,
      "##text_": 7157,
      "##message_": 7158,
      "skb_transport_header": 7159,
      "assoc_array": 7160,
      "func": 7161,
      "##XC": 7162,
      "##XX": 7163,
      "nft_exp": 7164,
      "sdio_claim_host": 7165,
      "tm": 7166,
      "##kt": 7167,
      "i2c_get_adapdata": 7168,
      "##TER": 7169,
      "##record": 7170,
      "##rwsem": 7171,
      "##_gr": 7172,
      "netif_queue_stopped": 7173,
      "##_dmac": 7174,
      "nvkm_timer_wait_": 7175,
      "##d_present": 7176,
      "cpumask_weight": 7177,
      "intel_uncore_write": 7178,
      "##ine": 7179,
      "##tig": 7180,
      "##_sector": 7181,
      "acpi_os": 7182,
      "##ideobuf": 7183,
      "##8x": 7184,
      "sg_nent": 7185,
      "npcm": 7186,
      "cdnsp": 7187,
      "devlink_fmsg": 7188,
      "##iver": 7189,
      "##_dx": 7190,
      "##_not_zero": 7191,
      "wdev": 7192,
      "pci_irq_vector": 7193,
      "##_pernet_": 7194,
      "comedi_check_trigger_arg_is": 7195,
      "##_address_to_resource": 7196,
      "##ipv6": 7197,
      "##forc": 7198,
      "to_delayed_work": 7199,
      "sdio_release_host": 7200,
      "skb_reset_mac_header": 7201,
      "rtl818x_iowrite": 7202,
      "journal": 7203,
      "##cursor": 7204,
      "thermal": 7205,
      "nla_put_be32": 7206,
      "##video": 7207,
      "##alesc": 7208,
      "##_bufs": 7209,
      "drm_printf": 7210,
      "##_frequency": 7211,
      "rdev_get_drvdata": 7212,
      "##rott": 7213,
      "##_nand_": 7214,
      "kfree_sensitive": 7215,
      "##tro": 7216,
      "btrfs_free_": 7217,
      "##commit": 7218,
      "##tent_": 7219,
      "##_save_state": 7220,
      "bq24": 7221,
      "aspeed_": 7222,
      "##360": 7223,
      "__kunmap_atomic": 7224,
      "intel_vgpu": 7225,
      "##max_": 7226,
      "dev_get_by_index": 7227,
      "##_descriptor": 7228,
      "hda": 7229,
      "arm": 7230,
      "##ethtool": 7231,
      "rv770_get_pi": 7232,
      "ida_alloc": 7233,
      "set_64bit_val": 7234,
      "amdgpu_irq": 7235,
      "hclge_comm": 7236,
      "##_halt": 7237,
      "btrfs_item_key_to_cpu": 7238,
      "iss": 7239,
      "##bind_": 7240,
      "##delete_": 7241,
      "##ensor": 7242,
      "irq_domain_": 7243,
      "##_direct": 7244,
      "__free_pages": 7245,
      "##_and_c": 7246,
      "##ys_": 7247,
      "##huge": 7248,
      "need_": 7249,
      "##_bl": 7250,
      "##7530": 7251,
      "##tect": 7252,
      "##le32": 7253,
      "##tible": 7254,
      "brcms_c": 7255,
      "sum": 7256,
      "dma_unmap_sg_attrs": 7257,
      "##_virt": 7258,
      "btrfs_header_nritems": 7259,
      "ext4_get_group": 7260,
      "stop": 7261,
      "##_ste": 7262,
      "##compress": 7263,
      "genlmsg_cancel": 7264,
      "fdt32_ld": 7265,
      "qib_write_kreg": 7266,
      "##tg": 7267,
      "##gered": 7268,
      "mlxsw_sp_acl": 7269,
      "UFS_SB": 7270,
      "ns_to": 7271,
      "##tk": 7272,
      "##_keys": 7273,
      "##vblank": 7274,
      "poll": 7275,
      "##10_0": 7276,
      "rvt_": 7277,
      "##terminate_": 7278,
      "of_address_to_resource": 7279,
      "##_rxq": 7280,
      "##_fwnode_": 7281,
      "before": 7282,
      "##pin_": 7283,
      "##_strip": 7284,
      "##_is_multicast": 7285,
      "##_get_by_name": 7286,
      "##ee_": 7287,
      "##tbl": 7288,
      "##must_check_helper": 7289,
      "##dt330": 7290,
      "__kfifo_uint_": 7291,
      "mt76x02": 7292,
      "__kfifo_uint_must_check_helper": 7293,
      "##bind": 7294,
      "switch": 7295,
      "##resh": 7296,
      "i915_gem_object_lock": 7297,
      "##v1": 7298,
      "nlm": 7299,
      "account_hardirq": 7300,
      "ar9003": 7301,
      "##_get_u": 7302,
      "##okie_": 7303,
      "__symbol_put": 7304,
      "st7789v_write_data": 7305,
      "##_triggered": 7306,
      "##_trylock": 7307,
      "##arse": 7308,
      "ip_tunnel": 7309,
      "asus_": 7310,
      "##issu": 7311,
      "pte_p": 7312,
      "##t_ptr": 7313,
      "##_eh": 7314,
      "mctp": 7315,
      "##ve_p": 7316,
      "##_resp": 7317,
      "kthread_stop": 7318,
      "tl": 7319,
      "tasklet_kill": 7320,
      "si2165": 7321,
      "##need_": 7322,
      "##tegrity": 7323,
      "NFS_": 7324,
      "##null": 7325,
      "set_page_": 7326,
      "##_lp": 7327,
      "##_optional": 7328,
      "##_interrupt_": 7329,
      "##quired": 7330,
      "dib8000": 7331,
      "list_del_rcu": 7332,
      "##ict": 7333,
      "buf": 7334,
      "_raw_spin_trylock": 7335,
      "##gtt_": 7336,
      "netdev_name": 7337,
      "__mlx": 7338,
      "##unpin": 7339,
      "##_cipher": 7340,
      "##iommu": 7341,
      "vb2_is": 7342,
      "UD": 7343,
      "axi": 7344,
      "b43_nphy": 7345,
      "##_engine_": 7346,
      "##_needs": 7347,
      "##_width": 7348,
      "##_sequence": 7349,
      "__cpu": 7350,
      "##_refresh": 7351,
      "imgu": 7352,
      "hfsplus_": 7353,
      "##_ri": 7354,
      "simple_strto": 7355,
      "rsnd_": 7356,
      "kgdb": 7357,
      "##of_node": 7358,
      "es": 7359,
      "##_offline": 7360,
      "pcim_iomap_regions": 7361,
      "##_apic": 7362,
      "snd_ctl_new": 7363,
      "process": 7364,
      "##_parameters": 7365,
      "rds_ib": 7366,
      "##_resolve_": 7367,
      "memalloc_no": 7368,
      "##els_": 7369,
      "lgdt330": 7370,
      "setattr": 7371,
      "cdns_": 7372,
      "##_mount": 7373,
      "m5": 7374,
      "##_high": 7375,
      "##_read_register": 7376,
      "##_quirk": 7377,
      "##_write_cmd": 7378,
      "crypto_alloc": 7379,
      "dmaengine_": 7380,
      "mcp251xfd_": 7381,
      "__p": 7382,
      "owl": 7383,
      "##report": 7384,
      "strstr": 7385,
      "##descriptor": 7386,
      "xbc": 7387,
      "##na": 7388,
      "##256": 7389,
      "nvbios_rd08": 7390,
      "##store": 7391,
      "##_mgmt": 7392,
      "trace_print_": 7393,
      "fanotify": 7394,
      "sprd_": 7395,
      "##_read_u8": 7396,
      "memchr": 7397,
      "arch_local_save_": 7398,
      "tasklet_schedule": 7399,
      "##classdev": 7400,
      "pnp_port_": 7401,
      "mmu_notifier": 7402,
      "arch_local_save_flags": 7403,
      "##fd": 7404,
      "##lport_": 7405,
      "##_bad_": 7406,
      "##_iden": 7407,
      "##anity": 7408,
      "snd_pcm_hw_constra": 7409,
      "b53": 7410,
      "rw": 7411,
      "virtio_has_feature": 7412,
      "snd_ctl_new1": 7413,
      "_scsih": 7414,
      "request_threaded_irq": 7415,
      "submit_": 7416,
      "##aces": 7417,
      "##_resume_": 7418,
      "##_hwmon": 7419,
      "##hb": 7420,
      "##_pin_": 7421,
      "wiphy_name": 7422,
      "samsung_clk_register": 7423,
      "__pci": 7424,
      "##card": 7425,
      "##_pdu": 7426,
      "##_opp": 7427,
      "##be16": 7428,
      "ice_s": 7429,
      "mwifi": 7430,
      "##_i2": 7431,
      "##_get_id": 7432,
      "hfsplus_bnode_": 7433,
      "vga_out8": 7434,
      "mwifiex_": 7435,
      "__h": 7436,
      "##_time_": 7437,
      "##arvel": 7438,
      "SMB": 7439,
      "##arvell": 7440,
      "##_bin": 7441,
      "##_command_": 7442,
      "##ations": 7443,
      "rt56": 7444,
      "hfs_bnode_": 7445,
      "##_is_b": 7446,
      "##number": 7447,
      "##_hdcp": 7448,
      "superio": 7449,
      "##_loc": 7450,
      "##midi": 7451,
      "##_dynamic": 7452,
      "##8044": 7453,
      "qla8044": 7454,
      "gpiod_get_": 7455,
      "smk": 7456,
      "##engine_": 7457,
      "snd_pcm_hw_constraint_": 7458,
      "vb2_plane_": 7459,
      "##_framebuffer": 7460,
      "##_kcontrol_component": 7461,
      "##DP": 7462,
      "##onfig": 7463,
      "##outer": 7464,
      "ext4_test_": 7465,
      "console_": 7466,
      "nlmsg_free": 7467,
      "p9_client_": 7468,
      "__re": 7469,
      "ethtool": 7470,
      "shmem": 7471,
      "##_perm": 7472,
      "process_": 7473,
      "##timeo": 7474,
      "##interruptible": 7475,
      "##_wc": 7476,
      "##unlocked": 7477,
      "qlcnic_sriov": 7478,
      "nfp_cpp": 7479,
      "##bi_flag": 7480,
      "##_module": 7481,
      "fwnode_handle_": 7482,
      "##XCB": 7483,
      "pci_find_": 7484,
      "##_set_param": 7485,
      "##_owner": 7486,
      "kobject_put": 7487,
      "skb_put_data": 7488,
      "get_order": 7489,
      "##_pay": 7490,
      "##_ctx_": 7491,
      "##_release_channel": 7492,
      "f2fs_put_": 7493,
      "##t_per": 7494,
      "##_vectors": 7495,
      "##rxrpc": 7496,
      "qedf_dbg": 7497,
      "##affinity": 7498,
      "__platform_driver_register": 7499,
      "d_is": 7500,
      "##disp": 7501,
      "##_trace_note_": 7502,
      "nilfs_seg": 7503,
      "bpf_trace_run2": 7504,
      "rtl8188e_PHY_Set": 7505,
      "xpc": 7506,
      "##_confirm": 7507,
      "##activate_": 7508,
      "##_set_power_state": 7509,
      "gmu": 7510,
      "##_method": 7511,
      "##ority": 7512,
      "##_elem": 7513,
      "xsk": 7514,
      "##rab": 7515,
      "##ISTER": 7516,
      "REGISTER": 7517,
      "##_initialize_": 7518,
      "hfa384x": 7519,
      "##evec": 7520,
      "intel_runtime_pm": 7521,
      "da90": 7522,
      "##_receive_": 7523,
      "SMB2": 7524,
      "##UT": 7525,
      "kzalloc_node": 7526,
      "##ISD": 7527,
      "scsi_host_put": 7528,
      "acpi_device_handle": 7529,
      "##_regis": 7530,
      "get_unaligned_be32": 7531,
      "run": 7532,
      "adm": 7533,
      "ethnl": 7534,
      "strlc": 7535,
      "##isp1": 7536,
      "rkisp1": 7537,
      "strlcat": 7538,
      "##_hif": 7539,
      "##_subflow": 7540,
      "params_width": 7541,
      "##92c": 7542,
      "##_g_ctrl": 7543,
      "##_classi": 7544,
      "iwl_mvm_vif": 7545,
      "##_soft_reset": 7546,
      "virt_to": 7547,
      "ktime_get_ns": 7548,
      "##3c_master": 7549,
      "adreno_is_a": 7550,
      "##ints": 7551,
      "paravirt_read_": 7552,
      "lan966x": 7553,
      "UDF": 7554,
      "##early": 7555,
      "amdgpu_vm": 7556,
      "usb_kill_urb": 7557,
      "##exists": 7558,
      "nlmsg_trim": 7559,
      "ps2": 7560,
      "comedi_alloc": 7561,
      "truncate_": 7562,
      "##_fmt": 7563,
      "##asprintf": 7564,
      "##logy": 7565,
      "mlxsw_sp_port_": 7566,
      "mtk_v": 7567,
      "NFS_I": 7568,
      "sumo": 7569,
      "##Rec": 7570,
      "evergreen_get_pi": 7571,
      "ring": 7572,
      "##_v3": 7573,
      "devm_reset_control_get": 7574,
      "drm_connector_list_": 7575,
      "##_thread_flag": 7576,
      "clock": 7577,
      "##frm": 7578,
      "##_misc": 7579,
      "add_timer": 7580,
      "##_append_": 7581,
      "prism2": 7582,
      "##trs": 7583,
      "devm_regmap": 7584,
      "##_request_irq": 7585,
      "##t_path": 7586,
      "##_lru": 7587,
      "##_is_native": 7588,
      "##tstamp": 7589,
      "##_set_hw": 7590,
      "##_conntrack": 7591,
      "ath10k_mac": 7592,
      "wait_on": 7593,
      "trace_smb3_exit_err": 7594,
      "##oco": 7595,
      "##_set_r": 7596,
      "##_addrs": 7597,
      "##_groups": 7598,
      "rtsx_write_register": 7599,
      "##_get_re": 7600,
      "##exc": 7601,
      "nfsd_": 7602,
      "##otg210": 7603,
      "drm_connector_list_iter": 7604,
      "##ular": 7605,
      "dc_fix": 7606,
      "##_pinctrl": 7607,
      "skb_reset_network_header": 7608,
      "##ISDN": 7609,
      "##_mg": 7610,
      "vdec": 7611,
      "##_prot_": 7612,
      "##force_": 7613,
      "cnic": 7614,
      "##_idr": 7615,
      "##_chrdev": 7616,
      "##c_x": 7617,
      "##_flip": 7618,
      "wrt_reg": 7619,
      "pwrap": 7620,
      "platform_device_register": 7621,
      "write_reg": 7622,
      "##_rsv": 7623,
      "##ablish": 7624,
      "Send": 7625,
      "##mmu": 7626,
      "##_response": 7627,
      "trace_smb3_exit_done": 7628,
      "##ment_": 7629,
      "##des": 7630,
      "##eb": 7631,
      "##_encap": 7632,
      "of_graph": 7633,
      "##error_reporting": 7634,
      "ipv6_addr_type": 7635,
      "drm_modeset_acquire": 7636,
      "rtl8188e_PHY_SetBBReg": 7637,
      "##claim": 7638,
      "##_pick": 7639,
      "fwnode_handle_put": 7640,
      "phy_read": 7641,
      "##_mcast_": 7642,
      "has": 7643,
      "##uch": 7644,
      "spi_sync": 7645,
      "##_pm_runtime_": 7646,
      "##lated": 7647,
      "videobuf": 7648,
      "##_bal": 7649,
      "devm_phy": 7650,
      "msp": 7651,
      "at91": 7652,
      "ixgbevf": 7653,
      "smum_send_msg_to_smc": 7654,
      "netif_set_real_num": 7655,
      "ceph_os": 7656,
      "iowrite32be": 7657,
      "usb_endpoint_xfer": 7658,
      "##jump": 7659,
      "##_bad": 7660,
      "hwrm_req": 7661,
      "##_rem": 7662,
      "is_qla80": 7663,
      "halbtc": 7664,
      "dsp": 7665,
      "##_display_power": 7666,
      "radeon_fence_driver": 7667,
      "gid_eq": 7668,
      "##OS_": 7669,
      "skb_trim": 7670,
      "##_magic": 7671,
      "hi": 7672,
      "mvpp2_pr": 7673,
      "##_A": 7674,
      "##04": 7675,
      "##_tpg": 7676,
      "cifs_put_": 7677,
      "##_receive": 7678,
      "##_ing": 7679,
      "##ant": 7680,
      "##6210": 7681,
      "paravirt_read_msr": 7682,
      "snd_g": 7683,
      "ath10k_pci": 7684,
      "##e_prep": 7685,
      "dma_request_": 7686,
      "to_h": 7687,
      "##_health": 7688,
      "schedule_timeout_": 7689,
      "##_lib": 7690,
      "tda100": 7691,
      "##eff": 7692,
      "##rob": 7693,
      "##cho": 7694,
      "##lockptr": 7695,
      "##tlb": 7696,
      "esp": 7697,
      "skb_gro": 7698,
      "mlx4_ib": 7699,
      "##module_": 7700,
      "mb86a20s_i2c": 7701,
      "##uint": 7702,
      "##Res": 7703,
      "##_mh": 7704,
      "##reshold": 7705,
      "##loade": 7706,
      "netvsc": 7707,
      "v4l2_ctrl_g_ctrl": 7708,
      "sram_write": 7709,
      "##close": 7710,
      "ath10k_htt_": 7711,
      "##e_comp": 7712,
      "dev_to_shost": 7713,
      "efct_": 7714,
      "rsi_dbg": 7715,
      "##_controls": 7716,
      "i915_gem_object_put": 7717,
      "div64": 7718,
      "##_restart_": 7719,
      "##_write_block": 7720,
      "##and_wait": 7721,
      "##zoned": 7722,
      "mISDN": 7723,
      "##_get_dev": 7724,
      "##_get_link": 7725,
      "kernfs_": 7726,
      "ktime_get_real_seconds": 7727,
      "##_bs": 7728,
      "##_nr_pages": 7729,
      "##ldev": 7730,
      "##_vp": 7731,
      "##_to_g": 7732,
      "netlbl": 7733,
      "is_uv": 7734,
      "chcr": 7735,
      "ocp_read_word": 7736,
      "##wqe": 7737,
      "regcache_sync": 7738,
      "##toc": 7739,
      "smu_v": 7740,
      "##settings": 7741,
      "ramf": 7742,
      "sta": 7743,
      "set_buffer": 7744,
      "##changed": 7745,
      "efi_is_native": 7746,
      "snd_ctl_add": 7747,
      "dc_fixpt_": 7748,
      "##less_": 7749,
      "##term": 7750,
      "ext4_has_feature": 7751,
      "nft_expr_priv": 7752,
      "uvc": 7753,
      "ntfs_attr": 7754,
      "##_mbx": 7755,
      "##_positive": 7756,
      "get_qedr": 7757,
      "hantro": 7758,
      "device_create_file": 7759,
      "clk_bulk": 7760,
      "##allowed": 7761,
      "ufshcd_dme_set": 7762,
      "##_est": 7763,
      "##smc": 7764,
      "##_devlink": 7765,
      "ice_aq": 7766,
      "##offload": 7767,
      "##_reflink": 7768,
      "##integer": 7769,
      "device_get_": 7770,
      "wl12xx": 7771,
      "##qos": 7772,
      "##_safe_": 7773,
      "devm_kasprintf": 7774,
      "##721": 7775,
      "MSD": 7776,
      "##_sourc": 7777,
      "##_is_h": 7778,
      "cik": 7779,
      "##show": 7780,
      "MSDOS_": 7781,
      "##truncate_": 7782,
      "netif_carrier_on": 7783,
      "local_lock": 7784,
      "mt7921": 7785,
      "##9x": 7786,
      "##PI": 7787,
      "skb_cow": 7788,
      "##150": 7789,
      "get_unaligned_be16": 7790,
      "skcipher_request_set_": 7791,
      "##s_offload_": 7792,
      "##_complete_done": 7793,
      "generic_reg": 7794,
      "__mt9t112_mcu": 7795,
      "##GE": 7796,
      "##quash": 7797,
      "##_idle_": 7798,
      "##_stopped": 7799,
      "##hashed": 7800,
      "ubifs_inode": 7801,
      "##ut_": 7802,
      "##ond": 7803,
      "##_read64": 7804,
      "##_crtc_state": 7805,
      "ath6kl_dbg": 7806,
      "##_mount_": 7807,
      "##rightn": 7808,
      "vsp1": 7809,
      "##orde": 7810,
      "##_825": 7811,
      "##_calibration": 7812,
      "mdiobus_": 7813,
      "perf_event_": 7814,
      "serial_out": 7815,
      "list_splice_init": 7816,
      "rd_reg_dword": 7817,
      "ramfuc": 7818,
      "dma_async": 7819,
      "drm_gem_object_": 7820,
      "##_ioread": 7821,
      "panic": 7822,
      "##vt": 7823,
      "##z4": 7824,
      "##_tlink": 7825,
      "##VL_": 7826,
      "##inoco": 7827,
      "##ope": 7828,
      "ssam": 7829,
      "rtsx_usb_add_cmd": 7830,
      "##_inner": 7831,
      "##_abort": 7832,
      "iwl_mvm_vif_from_mac80211": 7833,
      "##m_put_": 7834,
      "##ar_data": 7835,
      "##_cmpxchg": 7836,
      "typec": 7837,
      "##_fault": 7838,
      "ath_printk": 7839,
      "napi_complete_done": 7840,
      "ktime_to_ns": 7841,
      "iop": 7842,
      "btrfs_lookup": 7843,
      "##_anchor": 7844,
      "affs": 7845,
      "ahash_request_ctx": 7846,
      "##tin": 7847,
      "##anti": 7848,
      "##_ktime": 7849,
      "##_writ": 7850,
      "##_alloc_master": 7851,
      "pci_enable_msi": 7852,
      "brcmf_sdio": 7853,
      "jhash2": 7854,
      "##_mst_": 7855,
      "EXT4_I": 7856,
      "vega20": 7857,
      "spi_message_add_tail": 7858,
      "mlx4_cleanup": 7859,
      "##_infof": 7860,
      "##wap": 7861,
      "##id_valid": 7862,
      "##rings": 7863,
      "seq_putc": 7864,
      "##sl": 7865,
      "##pd": 7866,
      "##_remote_": 7867,
      "##struct_": 7868,
      "input_mt_": 7869,
      "##devm": 7870,
      "##_one": 7871,
      "is_vlan": 7872,
      "##_boot": 7873,
      "p4d_": 7874,
      "on": 7875,
      "##dpu": 7876,
      "__dev_get_by_index": 7877,
      "try_to": 7878,
      "##d_menu": 7879,
      "##_get_f": 7880,
      "##_pur": 7881,
      "##_ll": 7882,
      "r600_power_level": 7883,
      "##mer": 7884,
      "##x_check": 7885,
      "##layout_": 7886,
      "clk_get": 7887,
      "##_buddy": 7888,
      "v4l2_ctrl_new_std_menu": 7889,
      "log": 7890,
      "##realloc": 7891,
      "tcpm": 7892,
      "affs_": 7893,
      "##_virt_": 7894,
      "##27": 7895,
      "##set_state": 7896,
      "##selec": 7897,
      "napi_schedule": 7898,
      "##_node_put": 7899,
      "assert": 7900,
      "##metap": 7901,
      "##egative": 7902,
      "##_pages_": 7903,
      "##opp": 7904,
      "__blk": 7905,
      "regmap_bulk_write": 7906,
      "assertfail": 7907,
      "append_s": 7908,
      "##pcie_error_reporting": 7909,
      "##_perag": 7910,
      "max7": 7911,
      "comedi_check_trigger_is_un": 7912,
      "t3_write_reg": 7913,
      "##_available": 7914,
      "comedi_check_trigger_is_unique": 7915,
      "##_srq": 7916,
      "##heart": 7917,
      "snd_op": 7918,
      "dma_fence_put": 7919,
      "dmi_check": 7920,
      "##_template": 7921,
      "##_triggered_buffer": 7922,
      "xbc_node_": 7923,
      "##NT": 7924,
      "radeon_atom": 7925,
      "##_single": 7926,
      "##_bridge": 7927,
      "##msix": 7928,
      "__wil_err": 7929,
      "vchan": 7930,
      "##lac": 7931,
      "##keep": 7932,
      "##pll": 7933,
      "rtw_write8": 7934,
      "##_backlight_": 7935,
      "##lf": 7936,
      "##learPage": 7937,
      "blkdev": 7938,
      "ak": 7939,
      "sch": 7940,
      "##_mport_": 7941,
      "##iget": 7942,
      "ip_set_get_": 7943,
      "rtl92e_": 7944,
      "insert_": 7945,
      "##d_skb": 7946,
      "data": 7947,
      "##update_p": 7948,
      "kstrtol": 7949,
      "max89": 7950,
      "##_merge": 7951,
      "##_contig": 7952,
      "##e_prob": 7953,
      "##_ethtool": 7954,
      "get_random_bytes": 7955,
      "##_sum": 7956,
      "##_find_s": 7957,
      "hpsa": 7958,
      "cx23": 7959,
      "dmi_check_system": 7960,
      "##sisten": 7961,
      "##qgroup": 7962,
      "##ice_notifier": 7963,
      "##delayed_": 7964,
      "##SEG": 7965,
      "##_irq_vectors": 7966,
      "##_set_flag": 7967,
      "##iry": 7968,
      "rtw89_mac": 7969,
      "ipoib_priv": 7970,
      "cache_": 7971,
      "##_write64": 7972,
      "media_entity_pad": 7973,
      "media_entity_pads_init": 7974,
      "squash": 7975,
      "##_core_check": 7976,
      "apple_": 7977,
      "devm_reset_control_get_exclusive": 7978,
      "##_partial": 7979,
      "##user_ns": 7980,
      "nvif_object_": 7981,
      "hdsp": 7982,
      "##3d_": 7983,
      "drm_debug": 7984,
      "##arize": 7985,
      "_p9": 7986,
      "##interface_": 7987,
      "rio_mport_": 7988,
      "hisi_sas": 7989,
      "devm_rtc_allocate_device": 7990,
      "dma_release_channel": 7991,
      "##_download_": 7992,
      "dr_ste_": 7993,
      "wilc_wlan": 7994,
      "##18271": 7995,
      "rht_": 7996,
      "nla_get_u16": 7997,
      "##super": 7998,
      "cifs_sb_tlink": 7999,
      "##69": 8000,
      "##select_": 8001,
      "netdev_alloc_skb": 8002,
      "mlx5dr": 8003,
      "##_security": 8004,
      "##ouch": 8005,
      "##_cpumask_var": 8006,
      "bpf_trace_run3": 8007,
      "__skb_queue_head_init": 8008,
      "##_REG": 8009,
      "mt76_connac_mcu": 8010,
      "_p9_debug": 8011,
      "##hwrm": 8012,
      "##e_credits": 8013,
      "pinctrl_dev": 8014,
      "##need": 8015,
      "xfs_dir2_leaf": 8016,
      "ida_free": 8017,
      "isp1760": 8018,
      "##svc": 8019,
      "##03": 8020,
      "##_fd": 8021,
      "##_forw": 8022,
      "##4x": 8023,
      "##BG": 8024,
      "##_corrup": 8025,
      "##compat_": 8026,
      "iwl_fw": 8027,
      "tcf_idr": 8028,
      "##_protec": 8029,
      "##5523": 8030,
      "serial8250": 8031,
      "##_ecc": 8032,
      "##hz": 8033,
      "##_gain": 8034,
      "exit_": 8035,
      "__init_rwsem": 8036,
      "##act_": 8037,
      "ks88": 8038,
      "##_span": 8039,
      "skb_checksum": 8040,
      "ov88": 8041,
      "bkey": 8042,
      "##safe": 8043,
      "hlist_del": 8044,
      "##controller_data": 8045,
      "##_sdc": 8046,
      "##_rport_": 8047,
      "pmd_trans_": 8048,
      "pte_offset_": 8049,
      "##transport_header": 8050,
      "pte_offset_kernel": 8051,
      "##uevent_": 8052,
      "##e_csr": 8053,
      "nr": 8054,
      "##2io": 8055,
      "pci_save_state": 8056,
      "scsi_sg_count": 8057,
      "##Receive": 8058,
      "SendReceive": 8059,
      "##mig": 8060,
      "##igital": 8061,
      "xfs_perag": 8062,
      "rtw_set_": 8063,
      "pinctrl_dev_get_drvdata": 8064,
      "pci_alloc": 8065,
      "rtw_free_": 8066,
      "lpfc_sli_issue_": 8067,
      "##tification": 8068,
      "##_self": 8069,
      "##_sb_to": 8070,
      "i915_gem_object_create_": 8071,
      "nd_": 8072,
      "##strip": 8073,
      "##_copy_to": 8074,
      "##_driver_unregister": 8075,
      "rvu_get_": 8076,
      "##_ms": 8077,
      "##e_ctl": 8078,
      "__flush": 8079,
      "dt": 8080,
      "##high": 8081,
      "##ofile_": 8082,
      "##d_path": 8083,
      "scsi_device_": 8084,
      "##lat_": 8085,
      "AT": 8086,
      "misc": 8087,
      "##ah": 8088,
      "##_cam": 8089,
      "##field_": 8090,
      "##_hook": 8091,
      "append_seq": 8092,
      "##alg": 8093,
      "is_broadcast_": 8094,
      "##mac_addr": 8095,
      "netif_device_detach": 8096,
      "##udp": 8097,
      "##_record": 8098,
      "##8620": 8099,
      "qat_hal_rd_": 8100,
      "##frost_": 8101,
      "##ature": 8102,
      "##_gating": 8103,
      "##asure": 8104,
      "##mdio": 8105,
      "fs32_to_cpu": 8106,
      "ero": 8107,
      "##inor": 8108,
      "mtk_w": 8109,
      "##_prefix_printk": 8110,
      "sdev_prefix_printk": 8111,
      "##8i": 8112,
      "##_pdev": 8113,
      "##format_": 8114,
      "##unused_": 8115,
      "##_fence": 8116,
      "##_zero_addr": 8117,
      "fotg210": 8118,
      "ceph_sb_to": 8119,
      "btrfs_put_": 8120,
      "##_ali": 8121,
      "btrfs_set_root_": 8122,
      "__mt9t112_mcu_write": 8123,
      "hub": 8124,
      "extent_": 8125,
      "##audi": 8126,
      "appl": 8127,
      "##xygen": 8128,
      "afs_extract_": 8129,
      "proto": 8130,
      "##_it": 8131,
      "##_dt": 8132,
      "##_fan": 8133,
      "##sible": 8134,
      "##_restart": 8135,
      "##_power_down": 8136,
      "tasklet_setup": 8137,
      "##_amd": 8138,
      "xdr_stream_decode_": 8139,
      "tsi": 8140,
      "wsm": 8141,
      "##_play": 8142,
      "##_i2c_write": 8143,
      "##has_feature": 8144,
      "snd_cs46xx": 8145,
      "kobj": 8146,
      "##long": 8147,
      "##_set_cpu": 8148,
      "i80": 8149,
      "##_gmu": 8150,
      "snd_soc_component_get_d": 8151,
      "phy_write": 8152,
      "drm_dp_dpcd_read": 8153,
      "snd_soc_component_get_dapm": 8154,
      "##367": 8155,
      "oxygen": 8156,
      "##az": 8157,
      "##gmii": 8158,
      "##neta": 8159,
      "mvneta": 8160,
      "p54u": 8161,
      "dma_co": 8162,
      "is_broadcast_ether_addr": 8163,
      "idx": 8164,
      "pci_iounmap": 8165,
      "##_get_port_": 8166,
      "##_power_up": 8167,
      "##To": 8168,
      "i2c_smbus_read_": 8169,
      "##_pop": 8170,
      "##_shift_": 8171,
      "ceph_mdsc": 8172,
      "bttv": 8173,
      "rf69": 8174,
      "b43_radio_write": 8175,
      "##_color": 8176,
      "##61": 8177,
      "##txq": 8178,
      "eth_zero_addr": 8179,
      "i915_request_add": 8180,
      "raid": 8181,
      "##symbol": 8182,
      "##PT": 8183,
      "##ative_": 8184,
      "##alias": 8185,
      "##_write_byte": 8186,
      "list_splice_tail": 8187,
      "cfi": 8188,
      "touch": 8189,
      "##_get_m": 8190,
      "##_trap": 8191,
      "##_deinit": 8192,
      "pcie_": 8193,
      "__skb_queue_tail": 8194,
      "bnxt_hwrm": 8195,
      "##ed_by": 8196,
      "##_netorder": 8197,
      "##attr_netorder": 8198,
      "nfct_": 8199,
      "##_es_": 8200,
      "##ported_": 8201,
      "link": 8202,
      "tw": 8203,
      "##ingle_": 8204,
      "trace_event_get_offsets_x": 8205,
      "fs_path": 8206,
      "r600_power_level_enable": 8207,
      "##mcp": 8208,
      "##ang": 8209,
      "mt9": 8210,
      "ice_is_": 8211,
      "tc35": 8212,
      "dvb_usb": 8213,
      "gaudi": 8214,
      "ocfs2_xattr": 8215,
      "##2835": 8216,
      "first_": 8217,
      "##tlink": 8218,
      "##lar": 8219,
      "##UR": 8220,
      "##opt_": 8221,
      "##_split_": 8222,
      "##capacity": 8223,
      "phm_cap_enabled": 8224,
      "##_family": 8225,
      "##_noc": 8226,
      "##_tree": 8227,
      "a6xx_gmu": 8228,
      "##tch": 8229,
      "##ake_": 8230,
      "##_set_irq": 8231,
      "##_get_priv": 8232,
      "sb_bread": 8233,
      "hclg": 8234,
      "##rx_queue": 8235,
      "marvell": 8236,
      "##_prio": 8237,
      "sun8i": 8238,
      "##_RXCB": 8239,
      "wm831x": 8240,
      "##oob": 8241,
      "##_ctr": 8242,
      "##signed": 8243,
      "##_install": 8244,
      "##slots": 8245,
      "rpcrdma": 8246,
      "##_rport": 8247,
      "SMC": 8248,
      "##and_map": 8249,
      "##aw": 8250,
      "##jbd2": 8251,
      "batadv_tt_": 8252,
      "SiS_Get": 8253,
      "##wnd": 8254,
      "##edid": 8255,
      "##extra": 8256,
      "params_format": 8257,
      "vmcs": 8258,
      "##ice1": 8259,
      "snd_ice1": 8260,
      "mark_buffer_dirty": 8261,
      "##_linearize": 8262,
      "##_generation": 8263,
      "##_breakpoint": 8264,
      "##pre": 8265,
      "PageH": 8266,
      "drm_debug_enabled": 8267,
      "##_otg": 8268,
      "##console_": 8269,
      "##server": 8270,
      "rtl8192": 8271,
      "##ason": 8272,
      "##_kms_helper": 8273,
      "te": 8274,
      "##_train": 8275,
      "snd_devm": 8276,
      "##s_check": 8277,
      "##_rb": 8278,
      "##_deregister": 8279,
      "##_pcie": 8280,
      "device_remove_": 8281,
      "##rule": 8282,
      "##911x": 8283,
      "##refs": 8284,
      "##_resul": 8285,
      "ioread32be": 8286,
      "nlmsg_parse_": 8287,
      "ipv6_addr_any": 8288,
      "dib7000p": 8289,
      "iwl_trans": 8290,
      "qedf": 8291,
      "pcim_iomap_table": 8292,
      "##NX": 8293,
      "##1010": 8294,
      "##362": 8295,
      "pgd_": 8296,
      "ima": 8297,
      "##mgr": 8298,
      "##_fs_": 8299,
      "##_hotplug": 8300,
      "##entries": 8301,
      "rz": 8302,
      "##_lockres": 8303,
      "snd_soc_kcontrol_component": 8304,
      "##710": 8305,
      "ar5523": 8306,
      "memcpy_from": 8307,
      "##Ch": 8308,
      "##agram": 8309,
      "##ysclk": 8310,
      "##ohci": 8311,
      "##_bt_": 8312,
      "intel_fb": 8313,
      "pipe_": 8314,
      "qxl": 8315,
      "##vq": 8316,
      "##_set_g": 8317,
      "b43_shm": 8318,
      "ocfs2_cluster": 8319,
      "##18xx": 8320,
      "sg_init_one": 8321,
      "snd_ice1712": 8322,
      "snd_soc_car": 8323,
      "##_READ": 8324,
      "pi": 8325,
      "##3isp": 8326,
      "##total": 8327,
      "##_start_queue": 8328,
      "pinconf": 8329,
      "##tuple": 8330,
      "##_is_empty": 8331,
      "##_from_disk": 8332,
      "##running": 8333,
      "devm_kmalloc": 8334,
      "##ADD": 8335,
      "sk_sleep": 8336,
      "reiserfs": 8337,
      "cpsw_al": 8338,
      "##tributes": 8339,
      "__netif_tx_": 8340,
      "##asp": 8341,
      "ceph_snap": 8342,
      "coda_write": 8343,
      "snd_soc_card_get_": 8344,
      "blk_mq_rq": 8345,
      "srp": 8346,
      "##_pte": 8347,
      "##_iversion": 8348,
      "##c_tr": 8349,
      "snd_pcm_set_": 8350,
      "##limit_": 8351,
      "##_nexthop": 8352,
      "nla_get_be32": 8353,
      "mptcp_subflow": 8354,
      "ax": 8355,
      "##_hex": 8356,
      "##keys": 8357,
      "##_find_by": 8358,
      "##ixel": 8359,
      "f2fs_has_": 8360,
      "crypto_tfm_ctx": 8361,
      "simple_strtoul": 8362,
      "##tc_": 8363,
      "##_unreserve": 8364,
      "##9005": 8365,
      "##_datagram": 8366,
      "cx23885": 8367,
      "##first": 8368,
      "##_sent_": 8369,
      "of_iomap": 8370,
      "##runtime_": 8371,
      "af9005": 8372,
      "netdev_notifier_info_to_dev": 8373,
      "##creds": 8374,
      "##nlink": 8375,
      "##_get_system": 8376,
      "##_last": 8377,
      "##connection": 8378,
      "##br": 8379,
      "##pos": 8380,
      "##e_payload": 8381,
      "memalloc_nofs": 8382,
      "##6a": 8383,
      "##_pmd": 8384,
      "##_hi": 8385,
      "qla2": 8386,
      "panfrost_": 8387,
      "ppp": 8388,
      "##reg_field_": 8389,
      "drm_kms_helper": 8390,
      "##_listen": 8391,
      "cpumask_empty": 8392,
      "pv": 8393,
      "port_": 8394,
      "get_rx_desc": 8395,
      "device_lock": 8396,
      "##_stop_all": 8397,
      "bcm2835": 8398,
      "##ded_": 8399,
      "##_dcb": 8400,
      "##disc_": 8401,
      "##_extents": 8402,
      "##860": 8403,
      "host": 8404,
      "##alid": 8405,
      "dvb_register": 8406,
      "ahd_outb": 8407,
      "##5840": 8408,
      "nilfs_segctor": 8409,
      "hostap": 8410,
      "gma": 8411,
      "##clean": 8412,
      "##thread_": 8413,
      "cifs_buf_release": 8414,
      "##hier": 8415,
      "##thermal": 8416,
      "usb_stor_dbg": 8417,
      "dma_request_chan": 8418,
      "##_nid": 8419,
      "amd_": 8420,
      "##oke_": 8421,
      "##_cls_offload_": 8422,
      "context_": 8423,
      "##ggle_": 8424,
      "##sd_": 8425,
      "##write_fw": 8426,
      "bnad_": 8427,
      "vop": 8428,
      "wrm": 8429,
      "##toh": 8430,
      "##ise_": 8431,
      "cpu_has_": 8432,
      "##_function": 8433,
      "cpufreq": 8434,
      "##noidle": 8435,
      "cx25840": 8436,
      "##flip": 8437,
      "bnxt_re": 8438,
      "##_timestamp": 8439,
      "##_integrity": 8440,
      "stat": 8441,
      "##guest": 8442,
      "##named_": 8443,
      "##value_ex": 8444,
      "##reg_field_value_ex": 8445,
      "dev_of_node": 8446,
[...]
